<pad>	0
<unk>	0
<sos>	0
<eos>	0
▁کی	-3.80141
▁کے	-3.82458
▁میں	-3.8262
▁کا	-4.04226
▁ہے	-4.13009
▁سے	-4.2337
۔	-4.29539
▁ہے۔	-4.3341
▁کو	-4.46411
▁اور	-4.53921
▁اس	-4.61923
ی	-4.64591
▁	-4.68509
▁نہیں	-4.73256
▁یہ	-4.7648
▁تو	-4.8821
▁پر	-4.88431
▁نے	-4.92931
▁بھی	-4.96322
ہ	-5.03383
▁ہو	-5.03744
▁ہیں	-5.05301
ے	-5.06798
▁کر	-5.10031
▁ایک	-5.11003
▁کیا	-5.14628
▁ہیں۔	-5.14671
▁وہ	-5.19623
▁کہ	-5.21604
▁ان	-5.27079
ا	-5.3284
وں	-5.35212
؟	-5.50686
▁ہی	-5.54361
▁تھا	-5.56257
▁نہ	-5.57736
▁ہوں	-5.66119
▁پاکستان	-5.70624
▁جو	-5.71956
▁ا	-5.85534
▁ہم	-5.94083
▁اپ	-5.96364
▁گا	-5.96969
▁کويی	-5.97371
،	-5.99328
▁لیے	-5.99643
▁اب	-6.06695
▁کچھ	-6.09751
▁بہت	-6.11134
▁تھے	-6.1278
ن	-6.17646
▁سب	-6.17879
▁گیا	-6.18428
▁بات	-6.18636
▁اپنے	-6.24666
▁تھی	-6.26216
▁جب	-6.26236
▁۔	-6.26614
▁کسی	-6.26855
▁م	-6.29025
ر	-6.29483
▁کرتا	-6.29833
▁وقت	-6.32652
▁رہے	-6.33653
ت	-6.33914
▁اج	-6.35241
ات	-6.36687
▁و	-6.37699
▁ہوتا	-6.37876
▁ساتھ	-6.39225
یں	-6.39257
▁کرنے	-6.39492
▁رہا	-6.40835
▁کرنا	-6.42045
▁اپنی	-6.43221
▁لیکن	-6.44523
نے	-6.45829
▁پھر	-6.46017
96	-6.4667
▁جا	-6.47446
▁ہر	-6.47569
▁سی	-6.48173
▁ب	-6.51676
▁گی	-6.52217
▁ہوا	-6.53221
ز	-6.53674
▁یا	-6.54561
▁دیا	-6.54906
5	-6.55626
▁کام	-6.55693
▁پہ	-6.55748
▁گے	-6.56555
▁پی	-6.57671
▁جايے	-6.57902
▁ہوں۔	-6.59524
م	-6.60113
▁تک	-6.61649
ل	-6.61727
▁ک	-6.62289
3	-6.63612
▁کم	-6.64183
▁مجھے	-6.66181
و	-6.69644
▁ملک	-6.70519
▁رہی	-6.72585
▁کرتے	-6.73348
▁یہاں	-6.74041
س	-6.74042
▁گيی	-6.74812
▁ہونے	-6.75718
▁جاتا	-6.76052
▁س	-6.7761
▁چاہیے	-6.78222
▁دنیا	-6.78741
▁گيے	-6.79282
▁جس	-6.7937
▁ہونا	-6.80435
▁ٹیم	-6.80739
▁حکومت	-6.81295
▁دل	-6.82127
▁لوگ	-6.82655
▁اللہ	-6.83031
▁بعد	-6.83049
▁دو	-6.83321
نا	-6.83968
4	-6.85073
▁ایسا	-6.85591
▁اگر	-6.86523
ے۔	-6.86562
▁اسے	-6.87065
0	-6.89467
▁زیادہ	-6.89832
68	-6.90307
92	-6.91145
71	-6.91824
▁ہوتی	-6.92018
70	-6.92964
▁طرح	-6.93436
▁بے	-6.9362
758	-6.9442
▁پہلے	-6.9475
▁ن	-6.94759
▁لیا	-6.96017
▁ت	-6.96254
▁دی	-6.96862
▁ليے	-6.98666
▁یہی	-6.99067
▁سکتا	-7.01259
▁بی	-7.01995
▁ہمارے	-7.02372
▁بن	-7.02902
▁گ	-7.03634
42	-7.04177
▁کس	-7.05329
▁ہوتے	-7.05986
▁اسی	-7.06157
▁صرف	-7.06346
▁طرف	-7.0636
▁فیصلہ	-7.06369
▁ہويے	-7.08383
49	-7.08568
ک	-7.0866
▁خان	-7.08973
▁سال	-7.09113
▁اسلام	-7.09253
▁کیليے	-7.09403
▁والے	-7.12344
▁پ	-7.13112
يی	-7.134
▁کیوں	-7.13419
▁ہماری	-7.13587
▁کبھی	-7.13778
▁بار	-7.13843
▁طور	-7.15056
▁لوگوں	-7.15468
▁کریں	-7.16512
▁نظر	-7.17022
▁نام	-7.17104
▁میرے	-7.18252
▁سیاست	-7.19526
▁ضرورت	-7.19642
▁خود	-7.20682
▁لے	-7.21041
▁اپنا	-7.21705
▁ہويی	-7.21819
نگ	-7.22339
▁مگر	-7.22777
یا	-7.22865
04	-7.23378
▁کرکٹ	-7.24052
▁ایسے	-7.24997
▁پاکستانی	-7.2529
▁دے	-7.25351
▁ہمیں	-7.25465
▁کہا	-7.25617
▁خلاف	-7.26179
تا	-7.26337
▁انسان	-7.26767
▁سیاسی	-7.27772
▁دوسرے	-7.27848
اں	-7.28776
▁شکست	-7.29514
14	-7.29607
▁وجہ	-7.29665
ا۔	-7.30065
▁صاحب	-7.31204
▁تم	-7.31449
▁نا	-7.32151
▁پسند	-7.32971
تے	-7.34371
▁شروع	-7.34698
▁تھ	-7.34882
55	-7.35231
▁مل	-7.35918
ان	-7.36468
▁جگہ	-7.36502
▁استعمال	-7.36737
▁جہاں	-7.36753
▁بس	-7.37203
تی	-7.38693
▁دیکھ	-7.39589
▁قومی	-7.39679
▁جی	-7.39867
▁ايی	-7.39871
▁زندگی	-7.40475
▁سامنے	-7.40495
▁ايے	-7.40808
9	-7.41152
▁انہیں	-7.41374
▁سو	-7.42015
▁دور	-7.42799
▁گھر	-7.43649
ین	-7.45049
▁،	-7.45594
▁ر	-7.45996
▁کپ	-7.45997
▁لی	-7.46108
▁پہنچ	-7.46147
.	-7.46405
▁دن	-7.46951
▁ریاست	-7.47455
▁عمل	-7.47849
8	-7.48423
▁رہ	-7.48471
▁پیدا	-7.4857
▁والی	-7.48891
▁سکتے	-7.49385
▁ف	-7.49505
▁سر	-7.5021
27	-7.50567
▁ختم	-7.50749
57	-7.50885
▁ج	-7.51115
▁جاتے	-7.51398
▁بارے	-7.51721
▁جاتی	-7.51784
▁سکتی	-7.51798
17	-7.51827
▁اباد	-7.51967
▁ٹی	-7.52037
▁غیر	-7.53115
ں	-7.53185
▁فلم	-7.53462
▁ل	-7.53622
▁جن	-7.53945
46	-7.55051
35	-7.55061
89	-7.55138
▁جیسے	-7.55264
22	-7.5538
▁جاری	-7.55538
90	-7.55715
▁لیگ	-7.55857
33	-7.55944
24	-7.55957
38	-7.55999
▁بنا	-7.56642
▁کل	-7.56685
65	-7.57276
45	-7.57357
▁ٹیسٹ	-7.57357
▁سفر	-7.57384
▁میری	-7.57796
▁جايیں	-7.5813
▁تاریخ	-7.5885
▁2	-7.59268
▁حاصل	-7.59672
▁بڑی	-7.5988
▁نيی	-7.60027
▁وہاں	-7.6029
▁علم	-7.60432
▁کیسے	-7.60524
ش	-7.60718
▁ایا	-7.60831
يے	-7.61483
د	-7.61642
▁کون	-7.62498
▁بھارت	-7.62925
ب	-7.63743
▁خیال	-7.63969
▁بند	-7.64052
▁لاہور	-7.64491
1	-7.64663
▁لگا	-7.65152
ٹ	-7.65352
▁د	-7.66057
▁میرا	-7.66213
▁شریف	-7.67051
▁دونوں	-7.67105
▁بھر	-7.67301
▁نيے	-7.67315
▁دیتے	-7.67363
▁جنگ	-7.68879
▁چین	-7.69523
ری	-7.69584
▁خوش	-7.69659
ايی	-7.70658
می	-7.70683
▁سوچ	-7.70855
▁جان	-7.712
▁او	-7.71497
یہ	-7.7232
▁عام	-7.72346
▁مسيلہ	-7.72367
▁اگے	-7.7255
▁شکار	-7.72774
▁چکے	-7.72881
▁قانون	-7.73818
▁عوام	-7.73939
▁موجود	-7.74175
▁چل	-7.74559
▁نظام	-7.749
▁بلکہ	-7.7491
▁سوال	-7.74995
▁بڑے	-7.75076
▁ہ	-7.75777
▁کہاں	-7.76083
▁پاس	-7.7613
▁وزیر	-7.77158
ون	-7.7718
▁حال	-7.77339
▁کرے	-7.77411
▁سیریز	-7.7768
▁صورت	-7.77718
▁معاملہ	-7.7776
▁حالات	-7.77827
▁ابھی	-7.78303
▁تین	-7.79139
▁فوج	-7.79561
▁کرو	-7.79965
کہ	-7.80075
▁رکھتا	-7.80646
▁والا	-7.80883
▁دینے	-7.81456
▁رات	-7.81612
ور	-7.81667
▁جواب	-7.82938
▁اعلان	-7.83387
▁باہر	-7.83482
▁مشکل	-7.83506
▁تمام	-7.83541
▁عمران	-7.83669
▁فاينل	-7.83669
▁ایس	-7.83857
▁کھیل	-7.83903
▁تھیں	-7.83986
▁جانے	-7.84376
▁با	-7.84619
کی	-7.85108
▁قوم	-7.8548
305	-7.8621
▁مختلف	-7.86489
▁موقع	-7.8649
▁کراچی	-7.86519
▁حصہ	-7.86542
▁کوشش	-7.86544
▁میڈیا	-7.86606
12	-7.86849
▁قرار	-7.86935
▁رنگ	-7.86954
▁بال	-7.87371
▁بیان	-7.87961
▁ال	-7.88034
▁علی	-7.88431
▁بجلی	-7.89619
▁میچ	-7.89624
▁ٹھیک	-7.89632
▁پیش	-7.8974
0730	-7.89861
▁کار	-7.9107
ار	-7.91238
▁بر	-7.91285
▁اچھا	-7.91813
▁مسلمان	-7.92664
▁ادا	-7.92711
▁دوسروں	-7.929
▁قايم	-7.92968
▁وہی	-7.93275
▁اندر	-7.93279
▁دیتا	-7.93323
▁ھے	-7.93934
▁جیت	-7.94866
▁دیں	-7.95253
▁کہیں	-7.95358
▁کھلاڑی	-7.95804
▁گاڑی	-7.95826
▁ہاتھ	-7.95939
▁معلوم	-7.96128
▁اضافہ	-7.96281
▁چند	-7.96304
▁دوسری	-7.96367
▁کرتی	-7.96586
▁ہوگا	-7.96694
▁ایسی	-7.97828
▁کيی	-7.98399
▁ایشیا	-7.98513
▁روز	-7.991
▁ای	-7.99164
▁جمہوریت	-7.9965
▁شامل	-7.99875
▁ہمارا	-7.99895
▁ترین	-7.99967
▁ڈی	-7.99973
وس	-8.00043
▁کردیا	-8.00701
▁کہتے	-8.00788
پ	-8.01473
▁لو	-8.01631
▁نواز	-8.01875
▁بدل	-8.0207
▁کامیاب	-8.02075
▁مذہب	-8.02088
▁تعلیم	-8.02348
▁یقین	-8.02527
▁ش	-8.02616
یل	-8.02638
▁دوست	-8.03139
نی	-8.03165
▁انتخاب	-8.03189
▁مزید	-8.03203
▁تعلق	-8.03378
▁کیخلاف	-8.03441
▁دوسرا	-8.03464
▁ڈے	-8.03819
▁تبدیلی	-8.03853
▁پوری	-8.03937
▁کب	-8.0442
▁سمجھ	-8.05007
▁بہتر	-8.05157
▁شہر	-8.05204
▁ڈال	-8.05321
▁مح	-8.05735
▁واپس	-8.0576
ج	-8.05841
▁درمیان	-8.06891
▁کارکردگی	-8.06894
▁ورلڈ	-8.06904
▁مکمل	-8.06911
▁متعلق	-8.06924
▁شاید	-8.07014
▁امریکہ	-8.07041
▁ادمی	-8.07072
▁اچھی	-8.07087
▁بڑا	-8.07582
▁بینک	-8.07633
▁یاد	-8.07837
▁مت	-8.08125
▁یوں	-8.0885
▁عمر	-8.0989
▁اصل	-8.10051
▁دیکھا	-8.1015
▁چیز	-8.10356
ف	-8.10396
▁اقتدار	-8.10736
▁ممالک	-8.10738
▁زمبابوے	-8.10757
▁باقی	-8.10761
▁کپتان	-8.10877
▁پولیس	-8.10881
▁زمین	-8.10886
▁رہتا	-8.10994
▁تیل	-8.11079
▁انہوں	-8.1116
▁ضروری	-8.11228
▁مو	-8.11868
▁اٹھ	-8.12087
▁دورہ	-8.12485
▁گزر	-8.12716
▁ایل	-8.12952
▁پانچ	-8.12992
▁ہاں	-8.13068
▁تیار	-8.13613
▁باتیں	-8.13616
▁کمی	-8.13752
▁کہہ	-8.14471
▁ترقی	-8.14711
▁تحریک	-8.14733
▁مدد	-8.14755
▁موسم	-8.14867
▁لگتا	-8.14963
▁حق	-8.15309
▁چکا	-8.15602
▁بڑھ	-8.15946
▁سچ	-8.16832
▁قسم	-8.17494
▁دیر	-8.17712
▁انے	-8.18079
▁زبان	-8.18252
کا	-8.1839
▁جانا	-8.18664
لی	-8.18786
▁مطابق	-8.18897
▁انتظار	-8.18899
▁مسايل	-8.19039
▁اعظم	-8.19106
▁قوت	-8.1914
▁کردار	-8.19155
▁گرین	-8.19156
▁من	-8.1916
▁جیسا	-8.19207
▁اف	-8.19229
▁چ	-8.19668
▁ذم	-8.19673
▁پڑ	-8.19959
▁خبر	-8.20542
سی	-8.21157
ايے	-8.2191
▁روایت	-8.22094
▁ممکن	-8.22464
▁اتے	-8.22939
نہ	-8.23093
▁ماحول	-8.23208
▁باعث	-8.2324
▁سعودی	-8.23243
▁بحث	-8.23245
▁ہمیشہ	-8.23278
▁پارٹی	-8.23305
▁اردو	-8.23337
▁سکے	-8.23899
▁رکھ	-8.24111
▁ق	-8.24259
▁نکل	-8.24739
▁قابل	-8.24947
▁لا	-8.25057
▁چلا	-8.25475
▁مار	-8.25485
▁قیمت	-8.25949
ق	-8.25996
▁سن	-8.26521
ید	-8.26546
▁گیا۔	-8.26739
▁گر	-8.27048
▁نو	-8.27286
▁کمپنی	-8.27413
▁حل	-8.27509
▁ایم	-8.27613
یں۔	-8.27699
▁صبح	-8.27782
▁انگلینڈ	-8.27791
▁دیگر	-8.27855
▁تا	-8.27875
▁خاص	-8.27928
▁مطلب	-8.27928
▁محمد	-8.2794
▁اچھے	-8.2797
▁انصاف	-8.28251
▁خدا	-8.28283
▁پیچھے	-8.28292
▁منظر	-8.2831
▁می	-8.28368
▁سماجی	-8.28484
▁در	-8.28484
▁عالمی	-8.28489
▁پہلی	-8.2855
▁کافی	-8.28942
▁دینا	-8.28977
▁چھوڑ	-8.29111
اس	-8.29172
▁اے	-8.29218
کر	-8.29275
▁مذہبی	-8.29361
گی	-8.29486
▁بیٹھ	-8.29736
▁رو	-8.30938
لے	-8.31261
▁کتاب	-8.31439
ال	-8.31476
▁علما	-8.31682
کو	-8.31731
▁انداز	-8.31977
▁شام	-8.32399
▁نتیجہ	-8.32575
▁بالکل	-8.32581
▁ہاکی	-8.32581
▁پور	-8.32636
▁خوف	-8.32676
▁پاک	-8.32845
▁چیزوں	-8.3301
▁والوں	-8.3302
▁ہاتھوں	-8.33074
▁رکھا	-8.33813
▁فکر	-8.34083
▁اتی	-8.3452
بل	-8.34735
▁کہنا	-8.34792
▁اک	-8.3518
▁دان	-8.35246
▁کردی	-8.35511
▁کیے	-8.35813
را	-8.35966
▁لگے	-8.36215
یوں	-8.36303
▁ون	-8.36569
▁نکال	-8.3659
▁اخر	-8.36766
▁تب	-8.37175
▁اسلامی	-8.37189
▁عدالت	-8.37429
▁تلاش	-8.37543
▁اکثر	-8.37547
▁تعالی	-8.37591
▁جنوبی	-8.37698
▁اواز	-8.37714
▁گيیں	-8.37757
▁ظاہر	-8.37773
▁بہترین	-8.37822
▁غم	-8.37865
▁رہتی	-8.37871
▁خیر	-8.37952
▁پابندی	-8.37975
▁چار	-8.38088
▁حسن	-8.3835
▁رايے	-8.38604
ام	-8.39536
شاہد	-8.39716
انہ	-8.39725
▁ار	-8.39867
▁عملی	-8.40208
خت	-8.40794
▁لیتے	-8.4097
▁سطح	-8.41502
▁ملا	-8.41691
▁کرنی	-8.41708
▁ریس	-8.41768
▁گو	-8.41834
▁گرم	-8.4215
▁بغیر	-8.42864
▁اتنی	-8.42913
▁اتنا	-8.42916
▁شب	-8.42974
▁جانتے	-8.4302
▁درد	-8.4306
▁بنایا	-8.43189
▁مقام	-8.43199
یت	-8.43206
▁رکھنے	-8.4325
▁رہتے	-8.43295
▁رکھتے	-8.43299
▁چاہتا	-8.43364
▁چکی	-8.43821
▁سخت	-8.44042
▁اسٹریلیا	-8.44285
▁خ	-8.44387
منٹ	-8.446
▁فٹبال	-8.44937
▁لیں	-8.45669
▁جماعت	-8.46313
▁ہوگی	-8.4641
▁فی	-8.47235
▁ح	-8.47439
▁چھ	-8.4751
▁برا	-8.47529
▁ہاوس	-8.48174
▁ماہر	-8.48316
▁قران	-8.48343
▁صحت	-8.48352
▁پنجاب	-8.48361
▁گیمز	-8.48396
▁حسین	-8.48436
▁ادارے	-8.48468
93	-8.48522
▁ریکارڈ	-8.48528
▁معیشت	-8.48543
▁بھول	-8.48596
ط	-8.4868
▁اتا	-8.48689
▁احمد	-8.48735
یر	-8.48782
▁چاہتے	-8.48804
▁عرب	-8.48875
▁سارے	-8.48903
▁مقبول	-8.49042
▁پہلا	-8.49048
▁اہل	-8.49074
▁فون	-8.49158
▁شوق	-8.49165
▁اہم	-8.49205
▁دار	-8.49259
▁ازادی	-8.4945
▁بت	-8.49615
▁بچ	-8.51693
▁نیا	-8.52231
▁بھارتی	-8.52296
▁واقع	-8.5231
اب	-8.52411
▁یو	-8.52507
▁مضبوط	-8.52942
لا	-8.53012
▁جاپان	-8.53042
گ	-8.53049
▁ناکام	-8.53099
▁مجھ	-8.53342
▁اداکار	-8.53692
▁ڈاکٹر	-8.53899
▁ملاقات	-8.53943
▁تحقیق	-8.53985
▁خوشی	-8.54029
▁حیثیت	-8.54212
▁قیادت	-8.54212
▁عرص	-8.54214
▁راہ	-8.54216
▁فراہم	-8.54216
▁کیونکہ	-8.5422
▁باوجود	-8.54222
▁معاشی	-8.54245
▁صورتحال	-8.5425
▁تاہم	-8.54253
▁موضوع	-8.54295
▁الگ	-8.54377
▁صلاحیت	-8.54434
▁رپورٹ	-8.54456
▁خوب	-8.54501
▁سزا	-8.54504
▁ذریعے	-8.54518
▁روپ	-8.54631
▁دین	-8.54655
▁افراد	-8.54865
▁اٹھا	-8.54883
▁گل	-8.54976
▁پورے	-8.55027
اتی	-8.55217
▁سنا	-8.55882
ح	-8.56101
▁شہ	-8.56785
▁دیتی	-8.5727
یير	-8.57602
▁این	-8.58009
یشن	-8.58246
▁بل	-8.58486
▁محس	-8.59324
ٹی	-8.59468
▁قدر	-8.59504
▁مستق	-8.60019
▁بھايی	-8.602
▁دکھايی	-8.60267
▁حکم	-8.60291
▁واضح	-8.60462
▁فرانس	-8.60463
▁کشمیر	-8.60476
▁میدان	-8.60476
▁حوالے	-8.60501
▁علاقوں	-8.60508
▁حقیقت	-8.60558
▁افریقہ	-8.60614
▁امید	-8.6062
▁تمہیں	-8.60674
▁بعض	-8.6068
▁فتوی	-8.60687
▁اظہار	-8.60689
▁رکھنا	-8.60726
▁تحت	-8.60726
▁کورونا	-8.6077
▁ذکر	-8.60813
▁اغاز	-8.60831
▁دوران	-8.60847
▁بچوں	-8.60849
▁نشان	-8.6089
▁کھانا	-8.60928
▁ایف	-8.61091
▁گاڑیوں	-8.61172
▁بنانے	-8.61199
▁کھلاڑیوں	-8.61409
رت	-8.61996
2	-8.6205
▁کن	-8.62157
▁مع	-8.62291
ندر	-8.62594
مت	-8.6281
▁منہ	-8.62909
انی	-8.62984
▁طاقت	-8.63072
▁بلا	-8.63305
▁اسانی	-8.64149
▁ٹیکس	-8.64228
▁خوا	-8.64669
▁تر	-8.6473
▁سک	-8.64776
▁غلط	-8.64982
▁باد	-8.65396
ہی	-8.65661
▁دلچسپ	-8.65994
▁سپر	-8.66073
ايیں	-8.66113
▁کاروبار	-8.66173
▁مقدم	-8.66396
▁رہیں	-8.66441
▁گرمی	-8.66589
▁خرید	-8.67042
کے	-8.67087
▁ثابت	-8.67129
▁مشہور	-8.67129
▁مریض	-8.67129
▁عجیب	-8.6713
▁ترتیب	-8.6713
▁رقم	-8.67132
▁معاملات	-8.67133
▁سوشل	-8.67134
▁دوبارہ	-8.67136
▁جنرل	-8.67136
▁بحران	-8.67145
▁برابر	-8.67159
▁ٹايم	-8.67168
▁مسلم	-8.67209
▁پڑے	-8.67242
▁اصلاح	-8.6727
▁بجايے	-8.6728
▁سابق	-8.67296
▁فیصلے	-8.67396
▁اعلی	-8.67398
▁رکھے	-8.67439
▁جايزہ	-8.6744
▁جانتا	-8.67451
▁سوالات	-8.67499
▁راستے	-8.67534
▁طریق	-8.67587
▁قدم	-8.67618
▁جدید	-8.67623
▁پانی	-8.6769
▁انگریزی	-8.67709
▁صدر	-8.67725
▁اختیار	-8.67857
▁لاکھ	-8.67956
ڈی	-8.68407
▁وفا	-8.68458
▁ما	-8.68905
▁چلے	-8.68938
▁مرے	-8.69151
▁شہری	-8.69248
▁کیس	-8.69479
▁شخص	-8.70271
▁بد	-8.70443
▁سری	-8.70621
▁گزرے	-8.70961
▁انسانی	-8.71372
▁رخ	-8.71622
▁باب	-8.71863
▁لگ	-8.71983
▁شاہ	-8.72152
▁بک	-8.7216
▁گرد	-8.72221
▁مثال	-8.72447
▁ضرور	-8.7278
▁رحم	-8.72855
ول	-8.72881
بی	-8.72885
▁ملی	-8.7292
ي	-8.73062
▁عالم	-8.73176
یب	-8.73251
▁لڑ	-8.73513
ہے	-8.736
▁سڑک	-8.7404
▁احتجاج	-8.74272
▁یعنی	-8.74272
▁پروگرام	-8.74272
▁الفاظ	-8.74272
▁کرپشن	-8.74272
▁ماضی	-8.74272
▁اختلاف	-8.74273
▁وطن	-8.74273
▁یونیورسٹی	-8.74275
▁وايرس	-8.74277
▁چاند	-8.74289
▁چھٹايی	-8.74294
▁ونڈوز	-8.74297
▁بنگلہ	-8.74302
▁عقل	-8.74512
▁ڈايی	-8.74524
▁سرفراز	-8.74525
▁حکمت	-8.74528
▁ویب	-8.74544
▁پڑا	-8.74602
▁فرق	-8.74639
▁لیتا	-8.74786
▁لوٹ	-8.74801
▁جانب	-8.74873
▁راستہ	-8.74875
▁مر	-8.74919
▁کھل	-8.74972
مل	-8.74978
▁شر	-8.75039
▁شعب	-8.75114
▁خو	-8.7513
▁ووٹ	-8.75243
کل	-8.75288
▁بیماری	-8.75569
▁فرو	-8.75572
▁ملکی	-8.75687
▁اخری	-8.75846
▁ڈالر	-8.76346
یم	-8.76419
▁ماہ	-8.7655
▁دیش	-8.7657
▁ہوگیا	-8.76603
ٹام	-8.76935
▁لینڈ	-8.77021
▁لاي	-8.77273
▁پا	-8.77353
▁روک	-8.77506
▁لفظ	-8.7772
ع	-8.77801
▁بیٹھے	-8.78052
وٹ	-8.78338
اور	-8.78878
اد	-8.78902
▁داری	-8.79002
▁ہمت	-8.79466
▁مس	-8.79547
ڈ	-8.7992
▁فور	-8.80101
انے	-8.80351
▁پھول	-8.80761
▁یورپ	-8.80795
▁جلد	-8.80877
▁لگی	-8.80991
▁لینا	-8.81347
▁سربراہ	-8.81581
قبول	-8.81833
▁مصباح	-8.81964
▁مصنوع	-8.81964
▁مقرر	-8.81964
▁مثبت	-8.81965
▁نوجوان	-8.81965
▁تنقید	-8.81965
▁سسٹم	-8.81966
▁غریب	-8.81966
▁مارکیٹ	-8.81967
▁بورڈ	-8.81971
▁ویلتھ	-8.81971
▁انتظامیہ	-8.81972
▁افریدی	-8.81974
▁محض	-8.81977
▁فطرت	-8.8198
▁خاندان	-8.81981
▁محنت	-8.81983
▁سورج	-8.81983
▁درخت	-8.82005
▁فلاں	-8.82009
▁محبت	-8.82019
▁ترک	-8.82036
▁امریکی	-8.82059
▁ساينس	-8.82085
▁ادھر	-8.82096
▁ایمان	-8.82189
▁معیار	-8.82193
▁محفوظ	-8.82223
▁امیر	-8.82229
▁پتہ	-8.82264
▁پیداوار	-8.82278
▁کھانے	-8.82294
▁شعور	-8.82347
▁شادی	-8.82382
▁مقابلے	-8.82461
▁ساری	-8.8249
▁بنتی	-8.82511
▁مغربی	-8.82647
▁کاربن	-8.82734
▁دیکھنے	-8.82821
یاں	-8.8298
▁بچے	-8.83023
▁اندازہ	-8.83096
▁طے	-8.83122
▁گزار	-8.83187
▁شو	-8.83239
▁کہانی	-8.83315
▁دیدی	-8.83448
▁بننے	-8.83457
▁فن	-8.8393
▁جنگل	-8.83941
▁دینی	-8.8421
▁یار	-8.84386
▁از	-8.84403
▁کامیابی	-8.84473
▁سم	-8.85021
▁اوپن	-8.85164
▁تیر	-8.85296
▁مند	-8.85891
دی	-8.86253
21	-8.86599
▁درست	-8.86967
▁سلام	-8.86995
▁فضا	-8.8702
اتے	-8.87153
▁گاوں	-8.87438
▁اسان	-8.87576
▁بنیاد	-8.88955
▁پرند	-8.89082
▁را	-8.89214
▁معمول	-8.89424
▁جاو	-8.89511
▁تیز	-8.89561
▁طلب	-8.8966
▁ع	-8.90088
073	-8.901
▁نقصان	-8.90113
▁مفاد	-8.9014
▁چیمپين	-8.90162
▁خواہش	-8.90178
▁خال	-8.90226
▁انعقاد	-8.90297
▁چیلنج	-8.90297
▁متعارف	-8.90297
▁چیيرمین	-8.90297
▁اکسايیڈ	-8.90298
▁افغانستان	-8.903
▁نوازشریف	-8.90301
▁کیفیت	-8.90304
▁شدت	-8.90327
▁بجٹ	-8.90332
▁کتنے	-8.90355
▁دعوت	-8.90355
▁اثر	-8.9038
▁فطری	-8.90386
▁معاشرے	-8.904
▁احساس	-8.90409
▁علاقہ	-8.90413
▁لمبی	-8.90507
▁اخلاقی	-8.90564
▁محدود	-8.90572
▁مرتبہ	-8.90573
▁ٹینس	-8.9058
▁ٹرافی	-8.90581
▁الحق	-8.90584
▁سندھ	-8.90606
▁ٹر	-8.90624
نٹ	-8.90625
▁ورنہ	-8.90646
▁زمانہ	-8.90685
▁اثرات	-8.9071
▁اسٹیٹ	-8.9073
▁روشنی	-8.90766
▁جذبات	-8.9079
▁وزارت	-8.9081
▁ویسٹ	-8.90896
▁مزاج	-8.9094
▁وجود	-8.90959
کار	-8.90975
▁ٹوٹ	-8.91034
▁ملتا	-8.91292
▁بنیادی	-8.913
▁واقعہ	-8.91308
تین	-8.91347
▁تیزی	-8.91433
عداد	-8.91475
▁سا	-8.91645
ہے۔	-8.91951
▁وڈ	-8.92073
▁جاسکتا	-8.92124
▁بہ	-8.92452
▁سالوں	-8.92499
ٹس	-8.92765
▁ہار	-8.92846
▁گیس	-8.9298
▁زیر	-8.93004
▁طو	-8.93139
▁پڑھ	-8.93448
▁چاہی	-8.94772
▁ٹ	-8.95638
▁بھ	-8.95652
▁اتر	-8.95885
▁کيے	-8.95885
یز	-8.96114
ين	-8.96281
▁سکیں	-8.96313
▁خط	-8.96687
30	-8.96692
میں	-8.96868
▁بری	-8.96972
▁امد	-8.97011
شن	-8.97865
▁پڑی	-8.9792
▁بول	-8.97942
▁میل	-8.97945
▁اصول	-8.98023
تح	-8.98088
▁سٹی	-8.98091
▁خراب	-8.98115
▁شک	-8.98161
▁نف	-8.98325
▁بجا	-8.9847
▁تصور	-8.9854
▁نی	-8.98659
▁خارج	-8.98674
▁مصروف	-8.98832
▁منصوب	-8.99003
▁پیک	-8.99134
▁خواب	-8.99233
▁امکان	-8.99241
▁اجتماعی	-8.99388
▁تقسیم	-8.99388
▁حفاظت	-8.99388
▁چترال	-8.99388
▁البتہ	-8.99389
▁ریٹاير	-8.99389
▁متاثر	-8.99389
▁گزشتہ	-8.99389
▁بدترین	-8.99391
▁کیجيے	-8.99393
▁وزیراعظم	-8.99395
▁مسجد	-8.99395
▁فیفا	-8.99395
▁سرمایہ	-8.99398
▁تصویر	-8.99399
▁اختر	-8.994
▁دفاع	-8.99401
بہ	-8.99406
▁استاد	-8.99406
▁حساب	-8.99406
▁منزل	-8.9941
▁معاملے	-8.99416
▁اوپر	-8.9949
▁سامان	-8.99552
▁بتایا	-8.99566
▁لکھا	-8.99608
لہ	-8.99635
▁فايدہ	-8.99687
▁لیڈر	-8.99718
▁لگتی	-8.99723
▁خزانہ	-8.99755
▁زور	-8.99778
▁عزت	-8.99824
▁درجہ	-8.99854
▁دہ	-8.99996
▁کلب	-9.00058
▁لگانے	-9.00128
▁کوي	-9.00134
▁حالت	-9.00157
▁دوستوں	-9.00334
▁مکان	-9.00414
▁پايے	-9.00419
▁خوبصورتی	-9.00426
▁توجہ	-9.0047
▁عامر	-9.00534
▁ہزار	-9.00707
▁جلدی	-9.0076
▁ملنے	-9.00839
▁ہوگيے	-9.00883
▁لینے	-9.00948
▁صد	-9.00971
▁فلموں	-9.00988
▁پرانے	-9.01083
▁ملیں	-9.01176
▁لاين	-9.01345
▁پس	-9.02369
صف	-9.0263
▁سات	-9.02793
اين	-9.02949
شت	-9.03334
▁سیکھ	-9.03452
▁سہی	-9.03711
▁نیک	-9.03804
ڑ	-9.03864
سٹ	-9.03947
▁مان	-9.04442
تھ	-9.04797
▁کوچ	-9.04937
▁نور	-9.04979
▁پہنچا	-9.04985
قابل	-9.05363
▁باتوں	-9.05585
▁رد	-9.05944
رز	-9.06085
▁سبز	-9.06088
وا	-9.06641
▁تبدیل	-9.07488
▁ممب	-9.0749
▁ذہن	-9.07807
▁جسے	-9.07821
▁ایٹ	-9.07897
▁صنعت	-9.0811
▁کمزور	-9.08139
▁خوبصورت	-9.08571
▁قدرت	-9.08578
رے	-9.09248
▁کمپیوٹر	-9.09257
انوں	-9.09273
▁طالب	-9.09332
▁ڈر	-9.09342
▁حضرت	-9.09388
▁پیپلز	-9.09389
▁تشکیل	-9.09389
▁اعتبار	-9.09389
▁بزنس	-9.09389
▁واحد	-9.09391
▁ہندوستان	-9.09392
▁حقايق	-9.09393
▁ریلیز	-9.09393
▁مسلسل	-9.09393
▁برداشت	-9.09394
▁ویڈیو	-9.09396
▁شاندار	-9.09397
▁تازہ	-9.094
▁پیشکش	-9.09401
▁فیض	-9.09403
▁توقع	-9.09406
▁عادت	-9.09406
▁لبرل	-9.0941
▁اقدام	-9.09422
▁شرکت	-9.09424
▁اہمیت	-9.09425
▁مارچ	-9.0943
▁عزم	-9.09451
▁مرحلے	-9.09512
▁چیمپينز	-9.09553
▁شخصیت	-9.09564
▁غور	-9.09565
▁الیکشن	-9.09596
▁فرد	-9.09626
▁صاف	-9.09627
▁چھوٹی	-9.09643
▁بحال	-9.09654
▁اتنے	-9.09696
▁علاوہ	-9.09696
▁لندن	-9.09699
▁پھنس	-9.09713
▁قیام	-9.09716
▁کھڑا	-9.09722
▁ڈیسک	-9.09724
▁دعا	-9.09726
▁گناہ	-9.0979
▁لنکا	-9.09798
▁سلمان	-9.09799
▁داير	-9.09883
▁قیمتیں	-9.09901
▁انکھوں	-9.09923
▁کورٹ	-9.09946
▁زدہ	-9.09952
▁تجرب	-9.10063
▁علام	-9.10087
▁خصوصی	-9.10088
▁حد	-9.10107
▁ہدایت	-9.10161
▁جنہیں	-9.10218
▁قریب	-9.10229
▁کمپنیوں	-9.10247
▁قايد	-9.10338
▁سازی	-9.10355
▁تقریبا	-9.10365
▁رہنا	-9.10496
▁فلمیں	-9.10504
▁بنتا	-9.10521
▁چلتا	-9.10572
▁جھ	-9.10631
▁سونے	-9.10706
▁بیک	-9.10718
▁پیسے	-9.10825
▁پڑتا	-9.1085
▁سرکار	-9.1086
▁بازار	-9.10862
براہ	-9.10878
▁خاموشی	-9.10928
▁پرانی	-9.10984
▁کروں	-9.10985
سوس	-9.11194
▁قبل	-9.11212
▁ط	-9.11256
▁دس	-9.11416
▁سمجھا	-9.11426
▁ذرا	-9.11464
▁سبب	-9.11572
▁کش	-9.11763
▁عید	-9.11881
▁وی	-9.11907
▁زر	-9.11991
▁موجودہ	-9.12107
دو	-9.12244
سر	-9.12517
▁ڈ	-9.13401
▁بلند	-9.13606
▁نماز	-9.13792
▁درج	-9.13963
▁چو	-9.14043
▁جسم	-9.14285
▁ملے	-9.14523
▁اراد	-9.14682
▁قانونی	-9.14709
▁کرکے	-9.1473
کس	-9.1478
▁باز	-9.14792
▁ہونی	-9.15043
▁مرد	-9.15096
▁تن	-9.1528
▁ہوگيی	-9.1542
▁الود	-9.1604
ہیں	-9.16084
ایا	-9.16147
▁شی	-9.16365
▁شمار	-9.1644
چ	-9.16538
▁مد	-9.16693
لینڈ	-9.16799
▁انڈی	-9.1724
▁بنايی	-9.17313
▁مصر	-9.17405
▁دست	-9.17461
دہ	-9.18434
لم	-9.18661
ما	-9.18745
▁ٹرین	-9.18785
▁دیکھیے	-9.18931
▁تعمیر	-9.19095
روس	-9.19139
▁سماج	-9.19147
ذ	-9.19148
▁صلی	-9.19223
▁کھو	-9.19405
▁خام	-9.19407
▁جانی	-9.19464
رہ	-9.19837
▁جذب	-9.19935
▁توڑ	-9.20074
ماں	-9.20184
▁ملازم	-9.20216
▁انکھ	-9.20231
▁ترجیح	-9.20339
روں	-9.20395
مپ	-9.20449
▁انٹرنیشنل	-9.20499
▁فہرست	-9.20499
▁انگلش	-9.20499
▁ایوارڈ	-9.20499
▁نافذ	-9.20499
▁زلزل	-9.205
▁سنچری	-9.205
▁نفسیات	-9.205
▁اچانک	-9.205
▁پیپلزپارٹی	-9.205
▁مايیکروس	-9.20501
▁متحدہ	-9.20501
▁مسترد	-9.20508
▁وسلم	-9.20508
▁عروج	-9.20509
▁تحریر	-9.20512
▁قدیم	-9.20513
▁مسيلے	-9.20514
▁نیشنل	-9.20519
▁ایفیکٹ	-9.20519
▁مناسب	-9.20522
▁منتظر	-9.20522
▁ٹھہر	-9.20522
▁رسول	-9.20531
▁باکسر	-9.20542
▁گروپ	-9.20542
▁سمیت	-9.20545
▁خوشبو	-9.20548
▁حوصلہ	-9.20548
▁اقبال	-9.20567
▁ووڈ	-9.20593
▁بطور	-9.206
▁امریکا	-9.2061
▁فلاح	-9.20625
▁روحانی	-9.20632
▁شکر	-9.20646
▁روانہ	-9.20674
▁علاقے	-9.20678
▁خواہشات	-9.20706
▁ملازمت	-9.20729
▁کتنی	-9.2073
▁اگلے	-9.20736
افٹ	-9.20741
▁خطرہ	-9.20761
▁علاج	-9.20791
▁خطرے	-9.20795
▁نتايج	-9.20842
▁عدم	-9.2085
▁برطانوی	-9.20856
▁سٹریلیا	-9.20879
▁خرچ	-9.20927
▁وسیم	-9.20936
▁جماعتیں	-9.20965
▁امتحا	-9.20982
▁چلتے	-9.20983
▁گروہ	-9.21003
▁کمرے	-9.21017
▁ویسے	-9.21029
▁ایران	-9.21093
▁جمع	-9.21226
▁راز	-9.21235
▁پچھل	-9.21361
نز	-9.21384
▁جنون	-9.21387
▁کپور	-9.21454
▁چیزیں	-9.215
▁روح	-9.21522
▁منٹ	-9.21531
یش	-9.21537
▁چھٹی	-9.21614
▁چاہے	-9.21616
▁کھلا	-9.21623
▁بہار	-9.2164
▁مہمان	-9.21671
طف	-9.21709
▁مقدمے	-9.21806
دار	-9.21853
▁ذات	-9.22007
▁سکول	-9.22067
▁دولت	-9.22124
▁اداکارہ	-9.22214
▁دلچسپی	-9.2247
▁جارہا	-9.22499
▁علیہ	-9.22969
▁انکار	-9.23217
▁بھلا	-9.23219
▁رہا۔	-9.23423
▁مست	-9.23556
▁ازما	-9.2371
▁کرکٹر	-9.23758
▁ورز	-9.23783
▁واپسی	-9.24115
▁کمال	-9.24206
▁رک	-9.24233
ذا	-9.24318
▁لگن	-9.249
▁تاریخی	-9.2507
▁کروا	-9.25233
▁پیر	-9.25995
فین	-9.26129
▁اگ	-9.26152
▁ٹک	-9.26338
▁خانہ	-9.26827
▁پیس	-9.26846
▁ابادی	-9.26965
▁میر	-9.27971
وی	-9.28022
▁فو	-9.28028
▁لہ	-9.28216
اء	-9.28299
▁ايیں	-9.28441
▁جون	-9.28587
ہم	-9.28598
▁فر	-9.28888
▁زند	-9.28939
▁شع	-9.29108
▁انقلاب	-9.29114
▁سنت	-9.29139
▁چھپا	-9.29544
▁شاي	-9.29654
▁ٹیک	-9.29802
عید	-9.30538
7	-9.30664
▁ازاد	-9.30684
▁266307	-9.30693
▁مال	-9.31004
▁سکا	-9.31028
▁ٹھنڈ	-9.31037
▁پار	-9.31173
▁حکمران	-9.31361
▁مزدور	-9.31382
پوزیشن	-9.31394
▁پہاڑ	-9.31435
▁راج	-9.31468
▁چی	-9.31667
▁راست	-9.31688
▁خواہ	-9.31694
▁قت	-9.31698
▁دشمن	-9.31717
▁بنی	-9.31877
▁سیاح	-9.31878
▁مغرب	-9.3188
▁انگریز	-9.32007
▁عہد	-9.32054
▁درواز	-9.32143
▁دکھا	-9.32244
▁داخل	-9.32307
▁ايین	-9.32312
▁ور	-9.32319
▁کھول	-9.32541
▁پالیسی	-9.32583
▁ملز	-9.32602
▁برامد	-9.32884
▁ساز	-9.32885
▁احتساب	-9.32999
▁مقاصد	-9.32999
▁خلیفہ	-9.33
▁منفرد	-9.33
▁محمود	-9.33001
▁ہفتے	-9.33001
▁دیجيے	-9.33002
▁پليیر	-9.33003
▁ورلڈکپ	-9.33003
▁چونکہ	-9.33003
▁ضايع	-9.33004
▁ٹونٹی	-9.33004
▁افواج	-9.33006
▁خاطر	-9.33008
▁اجلاس	-9.33008
▁زرداری	-9.33009
▁ٹیکنالوجی	-9.3301
▁قاتل	-9.33013
▁حیرت	-9.33013
▁پاگل	-9.33015
▁حیران	-9.33016
▁املیٹ	-9.33019
▁بھٹو	-9.33022
▁طوفان	-9.33024
▁مقدار	-9.33027
▁اپریشن	-9.33029
▁انڈسٹری	-9.33035
▁دلکش	-9.33046
▁متبادل	-9.33051
▁اکثریت	-9.3306
▁مشرف	-9.33062
▁تیندو	-9.33068
▁نتیجے	-9.33091
▁نگران	-9.33105
▁شراب	-9.33121
▁معاشرہ	-9.33143
▁چاہيے	-9.33159
▁سرخ	-9.33164
▁شکریہ	-9.33214
▁چھوٹے	-9.33223
▁کتنا	-9.3323
▁کیجیے	-9.33239
▁انکھیں	-9.33247
▁اداروں	-9.33267
▁دیے	-9.33296
▁مقامات	-9.33314
▁قبضہ	-9.33378
▁ادايیگی	-9.33387
▁پوچھا	-9.33394
▁مج	-9.33402
▁درامد	-9.33431
▁الزامات	-9.33438
▁لگايے	-9.33448
▁مقصد	-9.33474
▁ڈار	-9.33491
▁جہاد	-9.33522
▁اضافے	-9.33529
▁منظوری	-9.33552
▁بیٹے	-9.33653
▁مقابلہ	-9.33738
▁دیکھتے	-9.33739
▁بنايے	-9.33743
▁سبق	-9.33763
▁دیکھنا	-9.3378
▁سمجھتا	-9.33817
▁تمہاری	-9.33848
▁کروڑ	-9.3386
▁جماعتوں	-9.33908
▁صحیح	-9.33924
▁ارد	-9.33973
ٹن	-9.34109
▁گھنٹے	-9.34125
▁سمجھنے	-9.34182
▁جیب	-9.34256
▁کارڈ	-9.34271
گر	-9.34397
▁ذہنی	-9.34478
▁تاک	-9.34559
▁مسلمانوں	-9.34573
▁دہلی	-9.34775
▁معمولی	-9.34785
▁تنہا	-9.35029
▁بازی	-9.35085
▁پرندے	-9.35213
▁نگار	-9.354
سٹر	-9.35422
▁پتا	-9.35541
▁ناکامی	-9.3558
▁ویز	-9.35595
▁مشت	-9.3573
▁سپورٹ	-9.35828
▁چلی	-9.36136
▁کھا	-9.36308
▁سنايی	-9.36326
▁بین	-9.36331
ں۔	-9.36342
▁کچ	-9.3643
▁گند	-9.36437
دین	-9.36472
▁ناز	-9.36528
وہ	-9.36573
کول	-9.36639
پر	-9.37277
▁چھپ	-9.37299
▁فری	-9.37311
▁صدی	-9.37402
ٹر	-9.37554
▁بھری	-9.37571
▁اسٹریلی	-9.37623
▁ظ	-9.37626
▁ارا	-9.37708
▁پہلو	-9.37898
▁پیٹ	-9.38074
رہا	-9.38154
▁ملکوں	-9.38222
ملک	-9.38429
▁پانا	-9.38526
▁شرٹ	-9.38753
▁پشاور	-9.389
رو	-9.38991
▁امن	-9.39017
▁عوامی	-9.3914
من	-9.39146
▁بڑھن	-9.3918
▁پریشان	-9.39936
وظ	-9.39939
طب	-9.40017
▁سلامت	-9.40298
دوز	-9.40304
▁رکھتی	-9.40308
▁مہنگا	-9.40312
▁لح	-9.40341
▁پن	-9.40516
بھی	-9.40539
رہی	-9.40554
▁فخر	-9.40653
▁صف	-9.40737
▁چاہ	-9.42074
▁جارہ	-9.42517
ايب	-9.43211
ء	-9.43425
!	-9.43434
▁توانا	-9.43571
▁266306	-9.43616
چا	-9.43998
▁لازم	-9.4447
گیر	-9.44906
▁خاموش	-9.45092
لايی	-9.45869
یٹ	-9.46262
▁گرفت	-9.46331
▁ذریع	-9.46518
▁پلان	-9.46615
▁لب	-9.46646
▁خاک	-9.46708
▁اسٹی	-9.46887
▁علامت	-9.47082
▁مخا	-9.47107
▁اسمان	-9.47162
▁انتہا	-9.4717
▁بیش	-9.47174
▁احتیاط	-9.47285
▁رجحان	-9.47285
▁منتخب	-9.47285
▁اعتماد	-9.47285
▁مناظر	-9.47285
▁اتحاد	-9.47285
▁ایشوریا	-9.47285
▁اسمبلی	-9.47286
▁اہتمام	-9.47286
▁حرارت	-9.47286
▁گفتگو	-9.47286
▁عبادت	-9.47286
▁ریلوے	-9.47286
▁استحکام	-9.47286
▁ہجوم	-9.47286
▁بہرحال	-9.47287
▁ہدف	-9.47287
▁خطرناک	-9.47287
▁کوارٹر	-9.47287
▁منصب	-9.47287
▁ضیاء	-9.47288
▁موسیقی	-9.47289
▁مذاق	-9.47291
▁فروغ	-9.47294
▁قرض	-9.47296
▁عمدہ	-9.47296
▁عدلیہ	-9.47312
▁برقرار	-9.47314
▁افسوس	-9.47329
▁تشریف	-9.47332
▁جانور	-9.47333
▁جايز	-9.47337
▁اسٹاک	-9.47344
اق	-9.47346
▁وغیرہ	-9.4735
▁شہزاد	-9.47353
▁بیٹنگ	-9.47369
▁اخبارات	-9.47369
▁مریم	-9.47371
▁طرز	-9.47388
▁مانتے	-9.47395
▁زاوی	-9.47396
▁مجاز	-9.4741
▁فنکار	-9.47412
یخ	-9.47431
▁حدود	-9.47438
▁انھوں	-9.47448
▁نقش	-9.47468
▁مشین	-9.4747
▁فیشن	-9.47473
▁انتہايی	-9.47481
▁مادی	-9.47514
▁وزن	-9.4752
▁مختصر	-9.47524
▁کبھار	-9.47538
▁تیسرے	-9.4754
▁کینسر	-9.4755
▁مرضی	-9.47564
▁کمیٹی	-9.47567
▁فیصلوں	-9.47577
▁بولنے	-9.47634
▁امین	-9.47641
▁جاسکتی	-9.47663
▁جانوروں	-9.47668
▁اٹھانا	-9.47668
ڈول	-9.47696
▁اجازت	-9.47715
▁بیانیے	-9.47725
▁مطالبہ	-9.47735
▁ٹايٹل	-9.47738
▁مہربانی	-9.47743
▁نیوزی	-9.4775
▁مضم	-9.47756
▁اینڈ	-9.4776
▁تھوڑا	-9.47863
▁معاف	-9.47896
▁بیٹھنے	-9.47901
▁بھروس	-9.47906
▁لگانا	-9.47917
▁شاعری	-9.47928
▁تعلقات	-9.47929
▁معلومات	-9.47992
▁کھڑے	-9.4801
▁بربادی	-9.48019
▁نوٹس	-9.48072
▁رواں	-9.48128
▁مرنے	-9.48179
▁ٹکٹ	-9.48189
▁کرلیا	-9.48241
▁چولہ	-9.48258
▁پرندوں	-9.48275
▁حیات	-9.48362
▁اظہر	-9.48388
▁دیکھیں	-9.48388
▁سوچنے	-9.48408
زار	-9.48414
▁تحقیقات	-9.48421
▁ایير	-9.48445
▁کررہے	-9.48495
▁داخلہ	-9.4853
▁قیمتوں	-9.48585
▁لاک	-9.48602
▁ٹھنڈی	-9.48682
▁نیچ	-9.48697
▁ویمن	-9.48703
▁ملتی	-9.48724
▁نظریہ	-9.48745
اظ	-9.48764
ذب	-9.48833
▁نظم	-9.48835
▁بتا	-9.48852
▁مانگ	-9.48967
ڈیز	-9.4897
از	-9.49021
وازن	-9.49038
وٹو	-9.49079
▁قا	-9.49137
▁انڈے	-9.49158
▁تھری	-9.49178
▁انا	-9.49208
▁راہنما	-9.49337
▁مالی	-9.49372
▁جز	-9.49487
▁فل	-9.49493
سے	-9.49541
نس	-9.49543
▁سیر	-9.49548
▁نیو	-9.49561
▁شپ	-9.49643
▁پڑھی	-9.49678
▁لايے	-9.49702
▁لگتے	-9.4971
کیا	-9.49848
▁نر	-9.49898
▁لکھت	-9.50076
▁کیمپ	-9.50116
▁امت	-9.50232
▁رونا	-9.50531
قی	-9.50713
▁یک	-9.50843
▁صا	-9.50926
▁تنگ	-9.50934
قین	-9.51081
▁یقینا	-9.51157
▁گلی	-9.51169
نڈ	-9.51233
▁سنگ	-9.51284
▁ٹیمیں	-9.51306
▁روایتی	-9.51375
▁پوزیشن	-9.5145
▁بہتری	-9.51547
▁مم	-9.51598
▁فرشت	-9.51749
▁چن	-9.51811
▁ی	-9.51895
▁مسل	-9.51973
▁قو	-9.51974
نت	-9.52318
▁ہوکر	-9.52351
▁بلے	-9.52434
▁بجے	-9.52678
ود	-9.52772
▁زمان	-9.52795
▁بٹ	-9.52803
▁تع	-9.53012
رین	-9.53364
▁کاری	-9.53469
▁ری	-9.53478
ایک	-9.54376
▁پل	-9.54399
پور	-9.54434
▁جتن	-9.54549
▁چور	-9.54657
▁نامے	-9.54892
▁غل	-9.5491
▁پہنچی	-9.54975
▁ٹورن	-9.55492
▁دیکھی	-9.55747
▁ٹور	-9.55837
یات	-9.56032
جاتا	-9.56234
ايش	-9.56237
▁شخصی	-9.56374
يیں	-9.56731
▁لازمی	-9.5676
▁قد	-9.5684
در	-9.5684
ڈیم	-9.56979
▁جمال	-9.56992
اپ	-9.57159
▁موت	-9.57221
▁ھ	-9.57254
مبر	-9.57616
▁حس	-9.57722
▁ض	-9.57917
▁جل	-9.58252
▁پو	-9.58825
ه	-9.58826
▁صاد	-9.58901
▁فکری	-9.58944
عت	-9.5935
کٹ	-9.59991
ہیں۔	-9.60188
▁ص	-9.60383
▁ٹھ	-9.60707
▁است	-9.60739
ریف	-9.60742
▁انتقا	-9.60944
▁ایکس	-9.61504
▁کالم	-9.6168
▁تمہار	-9.61876
▁کھ	-9.62044
▁سنی	-9.62117
▁مہنگ	-9.62153
ث	-9.62159
جان	-9.62325
▁بدلن	-9.62401
▁سنبھال	-9.6242
▁جوڑ	-9.62551
▁شناخت	-9.62778
▁پابند	-9.62833
▁غالب	-9.62858
▁ناک	-9.63053
جو	-9.63181
▁مظاہر	-9.63309
▁مارے	-9.6334
ٹہ	-9.63362
▁تخ	-9.63395
▁مسافر	-9.63517
امی	-9.63529
▁برس	-9.63609
وار	-9.63672
▁چھا	-9.63705
▁مخالف	-9.63724
ستان	-9.63735
▁اشیا	-9.63772
▁افسر	-9.63931
▁اصطلاح	-9.63952
▁تفصیل	-9.63952
▁تنظیم	-9.63952
▁حضور	-9.63952
▁حفیظ	-9.63952
▁مطالعہ	-9.63952
▁نزدیک	-9.63952
▁وضاحت	-9.63952
▁ٹوينٹی	-9.63952
▁موقف	-9.63952
▁انٹرویو	-9.63952
▁مستحکم	-9.63952
▁معروف	-9.63952
▁تجویز	-9.63952
▁مخلوق	-9.63952
▁کانفرنس	-9.63952
▁حزب	-9.63952
▁ورژن	-9.63953
▁دستخط	-9.63953
▁محترم	-9.63954
▁تعبیر	-9.63954
▁خاتون	-9.63955
▁دستیاب	-9.63956
▁ڈبلیو	-9.63957
▁خوراک	-9.63957
▁ازمايش	-9.63957
▁مدینہ	-9.63958
▁پیغمبر	-9.63958
▁تايید	-9.63959
▁عقید	-9.6396
▁دفع	-9.6396
▁نمايندگی	-9.6396
▁حیدر	-9.63961
▁تاخیر	-9.63962
▁ماڈل	-9.63963
▁واٹس	-9.63965
▁مہارت	-9.63967
▁گوادر	-9.63969
▁مواقع	-9.6397
▁متعدد	-9.63971
▁میڈرڈ	-9.63972
▁بھابھی	-9.63976
▁ڈاون	-9.63979
▁مہم	-9.63983
▁زايد	-9.63985
▁دودھ	-9.63989
▁مداحوں	-9.63991
▁اہستہ	-9.63993
▁جھوٹ	-9.63994
▁گولڈ	-9.63995
▁مولانا	-9.63997
▁دانش	-9.64019
▁مشورہ	-9.6402
▁اکرم	-9.64026
▁بھاگ	-9.64027
▁وابستہ	-9.64028
▁حوالہ	-9.6404
▁افسران	-9.64073
▁نقل	-9.64087
▁ماحولیات	-9.64094
▁امور	-9.64127
▁حلقوں	-9.64137
▁فریدی	-9.64149
▁ترجم	-9.64158
▁موجودگی	-9.64159
▁چرچ	-9.64163
▁ناول	-9.64175
▁فضول	-9.64179
▁مخالفت	-9.64188
▁فریق	-9.64196
▁بھاری	-9.64202
▁جناب	-9.64231
▁یاسر	-9.64248
▁دباو	-9.64276
▁اخلاقیات	-9.64279
▁نکلنا	-9.64351
▁نصیب	-9.64354
▁فرض	-9.64361
▁مفہوم	-9.64388
▁ہندو	-9.6439
▁بھگت	-9.64402
▁حصے	-9.64406
▁ڈرامے	-9.64409
▁انکشاف	-9.64452
▁تہذیب	-9.64452
▁دکھانے	-9.64457
▁عايد	-9.64462
▁عرض	-9.64464
وقوف	-9.64476
▁سايیکل	-9.6448
▁جہان	-9.64482
پریم	-9.64546
▁چپ	-9.64631
▁سروس	-9.64654
▁شدہ	-9.64704
▁مرکزی	-9.64713
خ	-9.64717
▁میچز	-9.64723
▁امر	-9.64776
▁صبر	-9.64806
انچ	-9.64822
▁ضمن	-9.64835
▁انسانیت	-9.64838
▁ٹیلی	-9.64841
▁کتابیں	-9.64851
▁پلانٹ	-9.64912
▁ایپ	-9.64925
▁سوچتا	-9.64941
▁جرمنی	-9.64958
▁گمان	-9.64959
▁مشاہد	-9.64962
▁قلم	-9.65029
▁غرض	-9.65096
رف	-9.65107
▁ٹھنڈے	-9.6511
▁خیالات	-9.65111
▁شناختی	-9.65143
▁دکھ	-9.65166
▁بڑھتی	-9.65206
▁برتن	-9.65236
▁کاش	-9.65243
▁تیرے	-9.65251
▁ایکشن	-9.65502
▁ہويیں۔	-9.65531
▁پرستی	-9.65578
▁سیاحت	-9.65596
▁سمت	-9.65609
▁پہاڑی	-9.65616
▁تش	-9.65636
▁انڈیا	-9.65705
▁نظریات	-9.65737
58	-9.65778
▁شور	-9.65864
ادہ	-9.65916
▁جوہر	-9.66079
▁پردہ	-9.66159
▁چلو	-9.66226
▁جیس	-9.66252
▁پڑھا	-9.66447
▁سردی	-9.6645
▁اکش	-9.66462
تر	-9.66483
▁رکھو	-9.66568
پا	-9.6671
▁ہنس	-9.66758
▁رس	-9.66766
▁بہن	-9.66791
▁طلاق	-9.66844
▁نکلی	-9.66896
▁پایا	-9.67044
▁ث	-9.67056
▁گردی	-9.67059
▁اٹھات	-9.67139
▁حمل	-9.67254
▁نسل	-9.67313
▁جاپانی	-9.67544
▁دنوں	-9.67573
راض	-9.67632
▁رسم	-9.67699
▁زی	-9.67747
ايع	-9.6784
▁لایا	-9.67841
▁وبا	-9.67982
▁چا	-9.68124
▁دیکھو	-9.68826
▁وعد	-9.68827
▁پھل	-9.68934
▁ڈب	-9.69166
▁بنے	-9.69166
▁دھر	-9.69522
▁جد	-9.69572
▁غلطی	-9.69778
▁سید	-9.69807
▁ابی	-9.69922
▁تی	-9.69925
صبا	-9.70064
▁باری	-9.70142
▁سست	-9.70295
▁بیشت	-9.70396
▁کیسی	-9.70445
▁ٹیموں	-9.70562
▁اول	-9.70643
▁سوي	-9.70647
ہر	-9.70773
▁سوچا	-9.70818
سنگ	-9.70878
ھ	-9.71101
سپورٹ	-9.71221
▁اوروہ	-9.71229
▁نکلے	-9.71414
▁ز	-9.71496
▁فوجی	-9.7155
▁گھبرا	-9.71633
▁جج	-9.71664
تب	-9.71754
▁سام	-9.72189
▁چاہت	-9.72303
▁سکہ	-9.72348
▁ہايی	-9.72438
▁لکھ	-9.72682
سپاٹ	-9.72838
دے	-9.72843
▁بڑھا	-9.73276
▁نیپ	-9.7344
ھے	-9.73555
وش	-9.73872
بر	-9.73961
▁مب	-9.73965
اف	-9.73989
▁والد	-9.73995
▁انج	-9.74034
▁ماب	-9.74185
▁لیتی	-9.74706
انا	-9.7476
▁ایشی	-9.74839
▁گھوم	-9.74962
یک	-9.75101
زیر	-9.75203
نقط	-9.75717
▁نج	-9.75754
سن	-9.75756
▁خر	-9.75814
▁جوش	-9.75832
شی	-9.75904
قول	-9.76054
▁رکھی	-9.76065
الی	-9.76273
▁ناگ	-9.76505
تلا	-9.76546
▁ہند	-9.76654
▁چینل	-9.7693
▁کنٹر	-9.77004
▁ارڈ	-9.77435
ہوں	-9.77626
▁ڈھ	-9.77793
▁گم	-9.7787
▁اسٹ	-9.78006
فی	-9.78151
وری	-9.78182
نچ	-9.78277
▁کرونا	-9.7868
▁نوٹ	-9.78725
▁رشت	-9.78994
ندہ	-9.79331
▁خدم	-9.79368
لز	-9.7966
سو	-9.80113
▁سور	-9.80248
▁بیمار	-9.80319
▁منظ	-9.80494
▁بنات	-9.80523
طلاق	-9.80546
▁لٹک	-9.8059
▁گول	-9.80876
اری	-9.81166
▁شکاری	-9.81199
▁قل	-9.81245
یيے	-9.81454
▁دبا	-9.81489
▁فیس	-9.8161
داری	-9.81613
کم	-9.81661
▁اٹ	-9.81831
حظ	-9.8192
بات	-9.82041
▁کھیلا	-9.82122
▁دریا	-9.82147
▁طبق	-9.82207
▁چال	-9.82381
▁اضاف	-9.82397
پٹ	-9.824
▁تھوڑ	-9.82496
▁تجارت	-9.82759
▁مشرق	-9.82777
▁چڑھ	-9.82839
▁جرمن	-9.83062
▁معاہد	-9.83217
▁روشن	-9.83217
▁تقری	-9.83289
▁لنک	-9.83306
▁مرتب	-9.83333
رس	-9.83334
▁مختص	-9.83608
▁ڈھونڈ	-9.83629
▁رکن	-9.83783
وث	-9.83887
▁پیرو	-9.83906
با	-9.83909
▁حکومتی	-9.83928
▁افغان	-9.83948
▁انٹرنیٹ	-9.83952
▁تصادم	-9.83952
▁حضرات	-9.83952
▁عثمان	-9.83952
▁عظیم	-9.83952
▁مطالعے	-9.83952
▁منتقل	-9.83952
▁سفارش	-9.83952
▁غصے	-9.83952
▁مدمقابل	-9.83952
▁ٹماٹر	-9.83952
▁تقویت	-9.83952
▁ثبوت	-9.83952
▁ویکسین	-9.83952
▁دماغ	-9.83952
▁فیفاورلڈ	-9.83952
▁ایکسچینج	-9.83952
▁تمغہ	-9.83952
▁دفتر	-9.83952
▁کشیدگی	-9.83952
▁محکمہ	-9.83952
▁پروپیگنڈ	-9.83953
▁درحقیقت	-9.83953
▁ارجنٹینا	-9.83953
▁اسکواڈ	-9.83953
▁اعصاب	-9.83953
▁طاہر	-9.83954
▁معذرت	-9.83954
▁مدارس	-9.83955
▁معجز	-9.83955
▁الیکٹر	-9.83955
▁شریعت	-9.83956
▁لطافت	-9.83956
▁نمایاں	-9.83956
▁فتوے	-9.83956
▁ستمبر	-9.83957
▁منقسم	-9.83957
تیسری	-9.83959
▁عشق	-9.83959
▁شویتا	-9.8396
▁غايب	-9.8396
▁قصور	-9.83963
▁معزز	-9.83966
▁سرزمین	-9.83968
▁اتوار	-9.83969
▁مرزا	-9.83969
▁رینکنگ	-9.83971
▁پریکٹس	-9.83971
▁گورننس	-9.83972
▁مطالبات	-9.83973
▁افسردہ	-9.83975
▁بلوچ	-9.83975
▁وژن	-9.83977
▁میزبان	-9.83977
▁گھڑی	-9.83981
▁داغ	-9.83982
▁نامزد	-9.83989
▁مطمين	-9.8399
▁مصالح	-9.83991
▁دبيی	-9.83993
▁بہادر	-9.83998
▁مجید	-9.83999
▁اجنبی	-9.84
▁شدید	-9.84002
▁اسحاق	-9.84006
▁خل	-9.84008
▁باکسنگ	-9.84009
▁ڈراپ	-9.84011
▁تحفظ	-9.84015
▁باقاعدہ	-9.84017
▁برپا	-9.84017
▁ایونٹ	-9.84019
▁ڈھنگ	-9.84019
▁گوشت	-9.8402
▁عبور	-9.8402
▁چہروں	-9.84021
▁نرخ	-9.84023
▁جاسک	-9.84025
▁جہاز	-9.84027
▁لمحات	-9.84043
▁سازش	-9.84058
ايد	-9.84068
▁چھٹیاں	-9.84069
▁چہرے	-9.8407
▁ہسپتال	-9.84072
▁روزانہ	-9.84079
▁خاتم	-9.84083
▁ترقیاتی	-9.84084
▁وادی	-9.84117
▁چیف	-9.8412
▁میٹھا	-9.84121
▁گردش	-9.84129
▁شیير	-9.84132
▁اسباب	-9.8414
▁ڈرايیو	-9.84143
▁وسطی	-9.84147
▁یورو	-9.84155
▁انفرا	-9.84162
▁چارج	-9.84172
▁ماننا	-9.84187
▁شریک	-9.84192
▁سامنا	-9.84192
صل	-9.84198
▁اسپین	-9.84245
▁ترجیحات	-9.84254
▁بتايے	-9.84256
▁اسکو	-9.84256
▁روزگار	-9.84285
▁برسوں	-9.8429
▁حساس	-9.84296
▁بڑھانے	-9.84318
▁دراز	-9.8432
▁ویران	-9.84333
گو	-9.84335
▁جھونک	-9.84336
▁روڈ	-9.84344
▁ارزو	-9.84351
▁کرسکتے	-9.84362
▁بدنام	-9.84365
▁تربیت	-9.84376
▁سحر	-9.84396
▁طارق	-9.84399
ضطر	-9.84403
▁دانستہ	-9.84458
▁سلسلہ	-9.84459
▁حافظ	-9.84486
کھا	-9.84489
▁اعلانیہ	-9.84496
▁دامن	-9.84499
▁انجام	-9.84501
▁احسن	-9.84518
▁روش	-9.84522
▁پبلک	-9.84525
▁باہمی	-9.84529
▁نوعیت	-9.84532
▁مددگار	-9.84553
▁سیکرٹ	-9.84557
▁حرکت	-9.84561
▁ایچ	-9.84587
▁گندگی	-9.84612
▁مجموعی	-9.84632
▁رویہ	-9.84647
▁حامی	-9.84652
▁فضل	-9.84669
▁دھرنے	-9.84675
▁کردیں	-9.84769
▁خری	-9.84812
▁صدق	-9.8482
▁پاتا	-9.84832
▁حادثے	-9.84843
▁خوابوں	-9.84845
▁خلا	-9.84847
▁مظاہرہ	-9.84847
▁ضروریات	-9.8486
▁بڑھتا	-9.84868
▁منصوبوں	-9.84869
▁سارا	-9.84889
▁تباہی	-9.84889
▁ارب	-9.84914
غاز	-9.84962
▁غرب	-9.84977
▁لکھے	-9.84984
▁سوچنا	-9.85034
▁نمون	-9.85157
▁مشرقی	-9.85163
▁تجارتی	-9.85165
▁انٹر	-9.85192
تو	-9.85195
▁سننے	-9.85207
▁وال	-9.8521
▁جیتنے	-9.85216
▁ویسی	-9.85252
▁مالک	-9.85254
▁اشار	-9.8526
▁بنانا	-9.85377
▁ڈاکٹروں	-9.85404
یجر	-9.85418
▁ايلینڈ	-9.85487
▁پھیلا	-9.85497
▁چڑ	-9.85523
کسنگ	-9.85559
وچ	-9.85578
▁صفايی	-9.85583
▁ادب	-9.85583
لیق	-9.85593
▁ہٹا	-9.85614
▁بجھ	-9.85738
▁ذر	-9.85767
▁خوبی	-9.85836
▁پرانا	-9.85924
▁تلے	-9.8595
زوال	-9.85951
▁خطے	-9.85954
▁اشنا	-9.85965
مز	-9.85977
▁مزدوری	-9.85997
▁حکمرانی	-9.86011
ڑوں	-9.86024
▁منڈی	-9.86024
▁شہریوں	-9.86026
▁پہنچنے	-9.8616
▁ہايے	-9.86162
▁خارجہ	-9.8623
▁ایجنسی	-9.86239
▁ذ	-9.8627
▁بیٹی	-9.86291
▁دانت	-9.86327
▁ہويیں	-9.86345
▁میاں	-9.86538
▁پیغ	-9.86664
▁بچن	-9.86699
▁قدرتی	-9.86737
▁لانے	-9.86771
او	-9.86796
▁فیص	-9.86797
▁شبہ	-9.86915
ص	-9.86945
▁ايینی	-9.87024
▁اونچا	-9.87246
▁یورپی	-9.87281
▁کٹوا	-9.873
▁سلو	-9.87342
نہیں	-9.87458
▁ملاي	-9.87562
▁بیچ	-9.87612
▁چھڑ	-9.87723
▁گاہ	-9.8778
▁سمجھت	-9.87803
▁کرانے	-9.8788
▁کاروباری	-9.87889
▁رومان	-9.88359
▁کرا	-9.88516
▁روزہ	-9.88672
جی	-9.88822
▁اع	-9.88841
▁میک	-9.88921
▁ء	-9.88946
▁بدلے	-9.89017
▁نکلا	-9.89032
اع	-9.89313
▁پک	-9.89386
لین	-9.89436
▁ھیں	-9.89487
▁سیم	-9.8952
▁پھرنے	-9.89674
لیے	-9.89764
صدیق	-9.89772
▁ترے	-9.89826
▁سمجھے	-9.8984
ڑے	-9.90084
وان	-9.90122
اج	-9.90256
▁بہر	-9.90469
▁دھو	-9.90475
▁بدن	-9.90496
▁باغ	-9.90721
جا	-9.90805
ڑا	-9.9084
▁کھڑ	-9.9099
▁بالر	-9.91146
▁پھیل	-9.91163
فت	-9.91352
▁تھک	-9.91661
ویں	-9.9179
▁جبر	-9.92121
اہد	-9.92199
▁نیت	-9.923
ند	-9.9231
▁پریم	-9.92396
▁معاو	-9.9246
▁بج	-9.92498
انک	-9.92573
▁سوات	-9.92953
▁پیمان	-9.9296
نوں	-9.93012
دت	-9.93055
▁رہن	-9.93249
▁سٹ	-9.93286
▁انڈ	-9.93471
▁گیند	-9.93557
تاہوں	-9.9369
ارا	-9.93852
▁بارہ	-9.94018
▁لہر	-9.94179
▁نمک	-9.94213
▁پری	-9.94526
▁دلی	-9.94676
▁گھ	-9.94725
▁اگاہ	-9.94832
▁فیلڈ	-9.94865
▁صدا	-9.94945
یط	-9.94958
▁بو	-9.94967
وم	-9.95016
▁روم	-9.95346
چار	-9.95363
▁سوا	-9.95638
▁ویس	-9.95893
رنے	-9.95992
ريین	-9.96168
گوار	-9.96641
انس	-9.9678
ریز	-9.96784
▁امان	-9.96935
▁بسی	-9.96947
23	-9.97257
▁نظری	-9.97447
▁سمجھن	-9.97684
روم	-9.97699
رہے	-9.97723
▁روٹی	-9.97818
قا	-9.97982
باز	-9.98161
یے	-9.98204
چہ	-9.98214
▁پايی	-9.98263
ٹاپ	-9.98485
مار	-9.98625
نون	-9.98745
سلط	-9.98891
وسی	-9.98969
بین	-9.99161
▁کرن	-9.99189
▁نکالا	-9.99219
ظ	-9.99338
ايل	-9.99452
مضا	-9.99644
▁چک	-9.9965
▁گران	-9.99667
میل	-9.99757
▁اسک	-9.9976
▁نفا	-9.99898
▁دا	-10.0014
گيے	-10.0023
▁کرلی	-10.0065
لت	-10.0111
جتنا	-10.0115
دوں	-10.0138
کھ	-10.0153
▁سیٹ	-10.0162
فر	-10.0193
فق	-10.0198
ادر	-10.023
حسن	-10.024
مرہ	-10.0251
▁پہل	-10.0267
نانے	-10.0267
▁پھ	-10.0303
ڈر	-10.0309
▁منا	-10.033
▁مش	-10.0331
لف	-10.0426
▁لکھی	-10.0429
لو	-10.0433
▁مود	-10.0441
لانا	-10.0448
قرار	-10.045
ھیں	-10.0456
▁ڈالا	-10.0469
عمل	-10.047
▁پیٹرول	-10.0482
▁جار	-10.0525
▁چھٹ	-10.0539
▁ٹاک	-10.0558
دولت	-10.057
ڈو	-10.0572
▁غ	-10.0581
▁اي	-10.0582
کتا	-10.0594
ڈل	-10.06
▁زد	-10.0601
▁سونا	-10.0609
▁اساس	-10.0611
▁بڑھے	-10.0612
▁لیٹ	-10.0616
▁جرم	-10.0654
یندر	-10.0657
صر	-10.0665
▁فیصل	-10.0675
رشک	-10.0687
انڈر	-10.0687
▁ایڈ	-10.0699
▁جم	-10.0722
ٹھے	-10.0725
انڈ	-10.0728
ہو	-10.073
شپ	-10.0731
▁نع	-10.0737
▁گہر	-10.0774
▁شاعر	-10.0775
▁مرکز	-10.0777
▁دوستی	-10.0777
بود	-10.0778
اتا	-10.0786
▁نسبت	-10.0786
▁منظور	-10.0788
▁غلام	-10.0795
▁تقاض	-10.0801
▁شرم	-10.0802
▁جمہوری	-10.0804
▁ہنگام	-10.0807
▁تباہ	-10.0809
پن	-10.082
▁لطیف	-10.082
▁یون	-10.0822
▁افریق	-10.0834
▁مقابل	-10.0837
یس	-10.0847
▁پتھر	-10.0849
حق	-10.0849
▁لگايی	-10.0851
▁سہ	-10.0853
▁روبوٹ	-10.0871
▁اخبار	-10.088
▁حقیق	-10.0881
▁رابط	-10.0882
پریٹنگ	-10.0886
▁نوکری	-10.0892
▁اذربايیجان	-10.0895
▁اردگرد	-10.0895
▁استدلال	-10.0895
▁اقتصادی	-10.0895
▁امدورفت	-10.0895
▁انحصار	-10.0895
▁اکسیجن	-10.0895
▁ایتھلیٹ	-10.0895
▁بغاوت	-10.0895
▁تسلسل	-10.0895
▁تناظر	-10.0895
▁جغرافی	-10.0895
▁درخواست	-10.0895
▁ذخاير	-10.0895
▁سیکورٹی	-10.0895
▁عاصم	-10.0895
▁عظمی	-10.0895
▁مباحث	-10.0895
▁مداخلت	-10.0895
▁مشغول	-10.0895
▁موبايل	-10.0895
▁کوالیفايی	-10.0895
▁کھجیندر	-10.0895
▁انتشار	-10.0895
▁تبلیغ	-10.0895
▁اقوام	-10.0895
▁حروف	-10.0895
▁قوانین	-10.0895
▁منافع	-10.0895
▁منسلک	-10.0895
▁رقص	-10.0895
▁عندیہ	-10.0895
▁احباب	-10.0895
▁وعظ	-10.0895
▁دشوار	-10.0895
▁پروفیسر	-10.0895
▁صحافی	-10.0895
▁منسوخ	-10.0895
▁نمودار	-10.0895
▁اعتراض	-10.0895
▁مکالم	-10.0895
▁نمايش	-10.0895
▁تعاون	-10.0895
▁گنجايش	-10.0895
▁تعارف	-10.0895
▁حمایت	-10.0895
▁اثاث	-10.0896
▁معصومیت	-10.0896
▁زخم	-10.0896
▁فارغ	-10.0896
▁ارمینیا	-10.0896
▁جايیداد	-10.0896
▁ابتدا	-10.0896
▁توسیع	-10.0896
▁ترغیب	-10.0896
▁فارمیٹ	-10.0896
▁قابو	-10.0896
▁محبوب	-10.0896
▁ساتویں	-10.0896
▁عناصر	-10.0896
▁مایوس	-10.0896
▁محاذ	-10.0896
▁نارمل	-10.0896
▁روایات	-10.0896
▁فاتح	-10.0896
▁تجزی	-10.0896
▁خالص	-10.0897
▁پسینے	-10.0897
▁پیدايش	-10.0897
▁شاخ	-10.0897
▁یکسويی	-10.0897
▁پودے	-10.0897
▁وفد	-10.0897
▁اسلوب	-10.0897
▁ہرگز	-10.0897
▁مسکرا	-10.0898
▁رکاوٹ	-10.0898
▁حقوق	-10.0898
▁غذا	-10.0898
▁لاچار	-10.0898
▁فیملی	-10.0898
▁کنارے	-10.0898
▁ہلکی	-10.0899
▁سنگھ	-10.0899
▁مابعد	-10.0899
▁بیلجیيم	-10.0899
▁رن	-10.0899
▁نہایت	-10.0899
▁تاثر	-10.0899
▁جناح	-10.0899
▁سہولت	-10.09
▁فتنہ	-10.09
▁اننگز	-10.09
▁ولیمز	-10.09
▁چیمپیين	-10.09
▁اقدار	-10.09
▁نوکریاں	-10.0901
▁وکیل	-10.0901
▁چھیڑ	-10.0902
▁امیدواروں	-10.0902
▁مخصوص	-10.0902
▁نیند	-10.0902
▁چھٹنی	-10.0902
▁بھرپور	-10.0903
▁ابلاغ	-10.0903
▁بیگم	-10.0905
▁فرمایا	-10.0905
▁مہینے	-10.0906
▁بیرون	-10.0906
▁ادھے	-10.0906
▁تعینات	-10.0907
▁مراد	-10.0907
لیکشن	-10.0908
▁لٹکنا	-10.0908
▁چھوڑيیے	-10.0908
▁مانیٹر	-10.0908
▁ویسٹرن	-10.0909
▁تیاریاں	-10.0909
▁وارن	-10.091
▁خامیوں	-10.091
▁کوہلی	-10.091
▁کارکن	-10.0912
▁خیز	-10.0913
▁پروفیشن	-10.0914
▁طبی	-10.0914
جزاير	-10.0915
▁سیزن	-10.0915
▁ملالہ	-10.0915
▁سلیق	-10.0916
▁2663060	-10.0916
▁ڈاکو	-10.0917
▁یونٹ	-10.0917
▁ساخت	-10.0918
▁اسپیشل	-10.092
▁ادھار	-10.092
▁بیٹسمینوں	-10.0925
▁ڈرام	-10.0928
▁مشروب	-10.0929
▁بیت	-10.0929
▁لکھنے	-10.093
▁چاٹ	-10.093
▁2663070	-10.093
▁بیٹری	-10.0931
▁نظارہ	-10.0931
▁ملت	-10.0932
▁جنہوں	-10.0932
▁تماشا	-10.0934
▁غدار	-10.0937
▁امکانات	-10.0944
▁شاہین	-10.0944
▁ہجر	-10.0946
▁سلسل	-10.0949
▁جشن	-10.095
▁ادارہ	-10.0951
▁لمحہ	-10.0951
▁ارمی	-10.0952
▁گلو	-10.0952
▁تیسرا	-10.0952
▁چوک	-10.0953
ست	-10.0953
▁بولت	-10.0957
▁حلقے	-10.0957
▁اپریٹنگ	-10.0957
▁عدالتی	-10.0959
▁غصہ	-10.096
▁عبدالق	-10.096
▁رہنمايی	-10.0962
▁ریال	-10.0963
▁یونان	-10.0964
▁رضی	-10.0964
▁یادگار	-10.0965
▁مبارک	-10.0966
▁برطان	-10.0968
▁موسی	-10.0969
▁مزاح	-10.0969
▁اختتام	-10.0971
▁یافتہ	-10.0971
▁لطیفہ	-10.0971
▁سوچتے	-10.0972
▁بستر	-10.0972
▁الطبیعیات	-10.0973
▁انعام	-10.0974
▁ننھے	-10.0975
▁روکنے	-10.0975
▁بخار	-10.0978
▁رابطے	-10.098
گا	-10.0983
▁جمہوریہ	-10.0984
▁قصہ	-10.0984
▁سلطان	-10.0985
▁سپاہی	-10.0985
▁موڈ	-10.0985
▁پہاڑوں	-10.0986
▁حملے	-10.0988
▁جلو	-10.0988
▁سیاستدان	-10.099
▁سونپ	-10.099
▁وعدے	-10.0992
▁ملازمین	-10.0992
▁کپڑے	-10.0994
▁جاہل	-10.0995
▁بیٹ	-10.0999
▁دیکھيے	-10.0999
▁منع	-10.1004
▁سیکٹر	-10.1005
راف	-10.1007
▁ہوجايے	-10.1009
▁کوریا	-10.1012
▁غلامی	-10.1018
جاتے	-10.1019
▁جتنے	-10.1021
▁شمالی	-10.1024
▁گہری	-10.1027
▁پوسٹ	-10.103
▁موٹر	-10.103
▁اسٹايل	-10.103
▁پوچھ	-10.1033
▁ملن	-10.1038
▁مقدمات	-10.1038
▁رہنما	-10.104
▁حامل	-10.1043
▁دکان	-10.1043
سکتی	-10.1046
▁گلا	-10.1047
▁چھوڑنے	-10.1054
▁بھون	-10.1055
▁رشتے	-10.1057
▁ابھر	-10.1059
گیا	-10.1061
▁ہڈی	-10.1072
▁دنیايے	-10.1072
▁ہنسی	-10.1076
▁بھايیوں	-10.1076
▁گیارہ	-10.1079
جرم	-10.1079
▁گرا	-10.1087
▁سرگرمی	-10.1092
▁لڑکی	-10.11
▁کردے	-10.1101
▁ڈیل	-10.1104
▁ہیرو	-10.1104
▁سلط	-10.1105
کیورٹی	-10.1117
داد	-10.1131
▁ویک	-10.1133
▁الرحمن	-10.1141
▁ہندی	-10.1144
▁مول	-10.1153
▁درس	-10.1156
▁رفت	-10.1169
▁ڈھل	-10.1179
▁کمزوری	-10.1182
▁شمس	-10.1183
▁قادر	-10.1192
▁تجاو	-10.1193
▁پارک	-10.1198
▁حرف	-10.1201
▁تیرا	-10.1203
▁ثانی	-10.1217
قات	-10.1218
شاہ	-10.123
▁دیيے	-10.1233
▁نعر	-10.1238
▁پاوں	-10.1247
▁چوتھ	-10.1275
▁پاور	-10.1277
▁قدرے	-10.1286
مع	-10.1315
▁لگاتے	-10.1315
لام	-10.1315
▁چارہ	-10.1321
▁اش	-10.1322
▁بھیج	-10.1329
کوس	-10.1332
▁اسکی	-10.1342
▁ندی	-10.1343
▁جنگلی	-10.1383
زمانے	-10.1385
▁کرایا	-10.1386
▁ام	-10.1389
غ	-10.1402
وندا	-10.1405
▁کردہ	-10.1414
▁راجر	-10.1424
سار	-10.1432
▁نظار	-10.1445
وشید	-10.1457
▁گھروں	-10.1465
کھوں	-10.1468
▁پہنچے	-10.1503
▁شعر	-10.1514
▁واقعی	-10.1515
▁کھلی	-10.1522
زن	-10.1528
▁شکنی	-10.1534
جات	-10.1538
▁گولی	-10.155
رونا	-10.1564
ونٹ	-10.1571
▁کتابی	-10.1576
▁ھو	-10.1589
کھی	-10.1598
▁برتر	-10.1605
▁عرف	-10.1654
رام	-10.1671
ارام	-10.1684
▁معرک	-10.1688
▁مرت	-10.1698
▁کیلیے	-10.17
علوم	-10.1702
وجھ	-10.1708
▁اٹل	-10.1712
▁انہی	-10.1728
▁جیتے	-10.1748
▁پسندی	-10.1765
▁ماسک	-10.1772
▁انقلابی	-10.1777
دل	-10.1796
نک	-10.1801
ھے۔	-10.1801
▁ہوسکت	-10.1826
▁گزری	-10.1835
دری	-10.1837
▁گڈ	-10.1842
تمی	-10.1846
دیا	-10.1856
▁انکے	-10.1863
▁ابو	-10.1898
▁تعلیمی	-10.1904
نگی	-10.1914
گاہ	-10.1955
▁مہ	-10.1961
لکت	-10.2015
▁ہوس	-10.2051
امن	-10.2057
▁قسمت	-10.2094
▁وق	-10.2097
يیر	-10.2099
▁خریدار	-10.2102
▁میڈی	-10.2108
▁ٹکراي	-10.2125
▁گھس	-10.2136
لوں	-10.2139
▁اداس	-10.2145
سٹن	-10.2149
▁خش	-10.2152
▁کاٹ	-10.2168
▁پروا	-10.2177
▁کانگ	-10.2186
سٹايل	-10.2226
عین	-10.223
نٹی	-10.2264
▁تف	-10.2265
زم	-10.2274
▁چلن	-10.2276
ايف	-10.2286
لب	-10.231
والہ	-10.2345
▁تح	-10.2352
▁ڈیٹ	-10.238
قت	-10.2399
حد	-10.24
سايی	-10.2407
▁لط	-10.2411
▁ٹا	-10.2431
وجہ	-10.2431
جانے	-10.244
ذی	-10.2445
▁بص	-10.2457
▁روا	-10.2458
▁2663063	-10.2476
▁2663061	-10.2508
صار	-10.251
▁ہوسکتا	-10.2541
▁رکا	-10.2542
▁جايی	-10.2558
سل	-10.2564
▁قاي	-10.2575
مرے	-10.2591
وڈ	-10.2592
پاکستان	-10.2604
ھی	-10.261
شیاء	-10.2619
▁سان	-10.2621
نو	-10.2636
▁جوان	-10.2637
▁ايند	-10.2643
▁چرا	-10.2662
36	-10.2663
▁اد	-10.2664
▁معا	-10.2672
رڈ	-10.2696
ریڈ	-10.271
▁سکی	-10.2724
کاری	-10.2734
▁نوا	-10.2753
▁کیسا	-10.2763
بار	-10.2785
کن	-10.2793
▁بلندی	-10.2795
کسی	-10.2803
شیا	-10.2806
اروں	-10.281
نڈے	-10.2823
مہ	-10.2825
▁سج	-10.2828
نڈز	-10.2829
کش	-10.2834
ٹل	-10.2837
▁عذ	-10.2857
▁کرسی	-10.2862
▁چاي	-10.2891
یرے	-10.2909
یشہ	-10.2914
تقا	-10.293
▁بچا	-10.2946
اط	-10.295
▁گیم	-10.2962
قد	-10.2966
رايے	-10.2982
اگ	-10.3024
▁باس	-10.3025
▁مارک	-10.309
▁ك	-10.3118
ايزر	-10.312
▁چمک	-10.312
▁ٹاي	-10.3124
دیدہ	-10.3175
▁چاھ	-10.3186
روک	-10.3199
و۔	-10.3205
▁حام	-10.3215
▁کا۔	-10.3224
کويی	-10.3238
▁اط	-10.3239
▁بازو	-10.3252
▁عرفا	-10.327
نام	-10.3286
کچھ	-10.3294
یٹس	-10.3297
▁کفر	-10.3308
لڈنگ	-10.3325
سا	-10.3325
وز	-10.3338
جن	-10.3348
گنی	-10.3349
کھار	-10.3364
ارسی	-10.3367
ثر	-10.3402
▁حا	-10.3406
▁اند	-10.3417
▁سکو	-10.3418
▁فہم	-10.3424
▁پریس	-10.3437
اسٹ	-10.3457
دیاگیا	-10.3464
لر	-10.3466
▁بالا	-10.3511
نظر	-10.3569
▁گھون	-10.3588
▁دھون	-10.3588
▁الٹ	-10.3601
▁شکن	-10.3622
بن	-10.3624
▁ہلا	-10.3648
علی	-10.3655
پہ	-10.3655
وت	-10.3668
شکل	-10.3671
دھر	-10.3684
پس	-10.3688
یفک	-10.3693
دید	-10.3695
ضابط	-10.3696
یرت	-10.3703
والے	-10.3705
چرا	-10.3714
▁چڑھا	-10.3724
▁کہنے	-10.3746
▁غی	-10.3753
مبادل	-10.3776
▁گن	-10.3777
▁سلیم	-10.3786
▁گزرا	-10.3787
پیش	-10.3788
▁ورک	-10.3793
▁جنت	-10.3794
تعلیم	-10.3796
افراد	-10.3819
اختیار	-10.3822
انصاف	-10.3822
يرلینڈ	-10.3824
ایجنسی	-10.3834
زر	-10.3843
▁اين	-10.3846
ٹری	-10.3848
▁ہوتاہے	-10.3852
شتہ	-10.3853
▁لال	-10.3871
▁نادان	-10.3881
▁پہن	-10.3891
▁روما	-10.3892
ڈیو	-10.3899
حوال	-10.3899
اٹ	-10.3902
روح	-10.3902
دورہ	-10.3916
قومی	-10.3919
▁خریدا	-10.3927
▁تھکا	-10.3947
▁ریاض	-10.3985
خوبی	-10.3987
▁اسکے	-10.3991
▁طع	-10.3995
▁بحری	-10.4002
قبل	-10.4011
اير	-10.4016
زاج	-10.4047
▁لمح	-10.4052
اسانی	-10.4052
چال	-10.4052
کواس	-10.4078
ودہ	-10.4079
▁بکھ	-10.4083
▁مجبور	-10.4088
▁پناہ	-10.4101
▁مجموع	-10.4108
▁مہربان	-10.4112
▁جنوب	-10.4119
▁اتار	-10.4122
▁بیدار	-10.4125
▁سیاستدا	-10.4128
▁نمبر	-10.4133
اہل	-10.4141
▁نیوز	-10.4152
▁خطر	-10.4152
▁ٹھکان	-10.4154
ھڑے	-10.4154
▁تری	-10.4162
▁طیار	-10.4163
تون	-10.4164
▁سپ	-10.4177
بردار	-10.4181
▁بیس	-10.4183
▁بیٹسمین	-10.4188
▁اسلح	-10.4197
▁الزام	-10.4213
سپتال	-10.4215
▁ادھا	-10.4216
▁ونڈو	-10.4222
صوبوں	-10.4227
ۃ	-10.4228
▁اورعدلیہ	-10.4228
▁بحفاظت	-10.4228
▁برصغیر	-10.4228
▁برعکس	-10.4228
▁بندوبست	-10.4228
▁تصاویر	-10.4228
▁تنازع	-10.4228
▁تنخواہ	-10.4228
▁ذہانت	-10.4228
▁شرايط	-10.4228
▁عطافرمايے	-10.4228
▁عظمت	-10.4228
▁فرايض	-10.4228
▁مبذول	-10.4228
▁مظلوم	-10.4228
▁مہرباں	-10.4228
▁ناظرین	-10.4228
▁واشنگٹن	-10.4228
▁ڈیجیٹل	-10.4228
▁مخمص	-10.4229
افتتاح	-10.4229
▁ارضیات	-10.4229
▁ازوریس	-10.4229
▁امیتابھ	-10.4229
▁بچگانہ	-10.4229
▁تبصرہ	-10.4229
▁راحیل	-10.4229
▁قبضے	-10.4229
▁مضامین	-10.4229
▁منقطع	-10.4229
▁ڈايریکٹر	-10.4229
▁گواسکر	-10.4229
▁خصلت	-10.4229
▁دپیکا	-10.4229
▁سفارت	-10.4229
▁سنٹرل	-10.4229
▁فیڈرر	-10.4229
▁نچوڑ	-10.4229
▁واقف	-10.4229
▁دھاگہ	-10.4229
▁مراکز	-10.4229
▁قریشی	-10.4229
▁اجتہاد	-10.4229
▁مشترکہ	-10.4229
▁ریگستان	-10.4229
▁ڈیزاين	-10.4229
▁اسرايیل	-10.4229
▁سنسناہٹ	-10.4229
▁لکڑی	-10.4229
▁اعتراف	-10.4229
▁زیربحث	-10.4229
▁ڈھانپ	-10.4229
▁شوبز	-10.4229
▁شیطان	-10.4229
▁تکلیف	-10.4229
▁فیفاورلڈکپ	-10.4229
▁مغلوب	-10.4229
▁اشتہار	-10.4229
▁فعال	-10.4229
▁وسیع	-10.4229
▁ہفتوں	-10.4229
▁رسالت	-10.4229
▁اصرار	-10.4229
▁طلسم	-10.4229
▁عراق	-10.4229
▁مسکراہٹ	-10.4229
▁مطلوب	-10.4229
▁احسان	-10.4229
▁فتووں	-10.4229
▁زلمی	-10.4229
▁عطاء	-10.4229
▁انتھک	-10.4229
▁اتفاق	-10.4229
▁وسايل	-10.4229
▁چونکا	-10.4229
▁امتیاز	-10.4229
▁فاطم	-10.4229
▁زیادتی	-10.4229
▁داڑھ	-10.4229
▁زحمت	-10.4229
▁زرعی	-10.4229
▁ایيرپورٹ	-10.4229
▁سراسر	-10.4229
▁لاٹھی	-10.4229
▁سینير	-10.4229
▁نکتہ	-10.4229
▁تیمور	-10.4229
سکینڈل	-10.4229
▁فیچر	-10.4229
▁ابلیس	-10.423
▁قربانی	-10.423
لوجی	-10.423
▁پرچم	-10.423
▁ٹمپرنگ	-10.423
▁پنکھا	-10.423
▁کارنامہ	-10.423
▁اکھاڑ	-10.423
▁نایاب	-10.423
▁گھیرا	-10.423
▁ڈیزل	-10.423
▁یادداشت	-10.423
▁صحافت	-10.423
▁عادات	-10.423
▁ناخوش	-10.423
▁شعاع	-10.423
▁ارجنٹ	-10.423
▁تحسین	-10.423
▁چکوال	-10.4231
▁ریڈیو	-10.4231
▁جرنیل	-10.4231
▁داستان	-10.4231
▁رزق	-10.4231
▁فايرنگ	-10.4231
▁طبع	-10.4231
▁عورت	-10.4231
▁مارشل	-10.4231
▁عمومی	-10.4231
▁ڈکٹی	-10.4231
▁تالاب	-10.4231
▁سفیر	-10.4232
▁الیون	-10.4232
▁چیمبر	-10.4232
▁اعزاز	-10.4232
▁محفل	-10.4232
▁سیدھے	-10.4232
▁پلاسٹک	-10.4232
▁توفیق	-10.4233
▁دسمبر	-10.4233
▁عصری	-10.4233
▁ہمدرد	-10.4233
▁پریشر	-10.4233
▁رشید	-10.4233
▁تسلیم	-10.4234
▁خواص	-10.4234
▁راضی	-10.4234
▁گجرات	-10.4234
▁برخلاف	-10.4234
▁ساکھ	-10.4235
▁تشدد	-10.4235
▁ٹیکنو	-10.4235
▁ڈیوڈ	-10.4236
▁نااہل	-10.4236
▁پٹرولیم	-10.4236
▁حریف	-10.4236
▁ديیے	-10.4237
▁مبنی	-10.4237
▁فجر	-10.4237
▁ہوشیار	-10.4237
اصل	-10.4238
▁سیدھی	-10.4238
▁سرحدوں	-10.4238
▁وحش	-10.4238
▁شاہکار	-10.4238
▁وحی	-10.4238
▁مزاحیہ	-10.4239
▁الجھ	-10.4239
▁یارو	-10.4241
الا	-10.4241
▁اوسط	-10.4242
▁جھلک	-10.4242
▁اجراء	-10.4242
▁سفید	-10.4243
▁گي	-10.4243
▁مسخ	-10.4243
▁پلیٹ	-10.4243
▁بوتلیں	-10.4243
▁فرمايے	-10.4243
▁مفکر	-10.4244
▁نادہند	-10.4244
▁تصحیح	-10.4245
نکہ	-10.4245
▁اخراجات	-10.4246
▁عدل	-10.4246
▁ورق	-10.4246
▁سمیٹ	-10.4246
▁مجال	-10.4247
▁خیریت	-10.4247
▁پارلیمان	-10.4248
▁ویرات	-10.4248
لوار	-10.4248
▁فاصل	-10.4249
▁پوجا	-10.4249
▁سنجید	-10.4249
▁اٹھارہ	-10.4251
▁ٹانگ	-10.4252
▁مرچ	-10.4253
▁تاجروں	-10.4254
▁پستہ	-10.4255
▁مذاکر	-10.4256
▁کھانوں	-10.4257
اگر	-10.4257
▁اگرچہ	-10.4258
▁تنزلی	-10.4258
▁حاضری	-10.4258
▁دہايی	-10.4259
▁امریت	-10.4261
▁خطاب	-10.4261
▁اتش	-10.4261
▁معاشرتی	-10.4262
▁بزدل	-10.4262
▁سعد	-10.4263
▁تغیر	-10.4264
▁ادم	-10.4265
▁حلال	-10.4265
▁گزارو	-10.4266
▁فلور	-10.4267
▁رايیڈ	-10.4267
▁پوڈ	-10.4267
▁بنیں	-10.4268
▁بچانے	-10.4269
▁مقدر	-10.4269
▁جرات	-10.4269
▁گھنٹ	-10.427
▁مستع	-10.427
▁اخراج	-10.4271
▁حلق	-10.4271
▁پروازوں	-10.4271
▁عدو	-10.4272
▁لڑتے	-10.4272
▁خدشہ	-10.4273
▁لہج	-10.4273
▁کوزے	-10.4273
▁دھوم	-10.4273
▁ہمار	-10.4274
▁پڑھنا	-10.4274
▁دھوکا	-10.4274
▁یونین	-10.4274
▁ناشت	-10.4275
▁چیخ	-10.4277
▁طالبان	-10.4277
▁ہانگ	-10.4278
▁تمھارے	-10.4279
▁ڈبل	-10.4279
▁پابندیاں	-10.428
▁ڈراموں	-10.4282
▁سپرد	-10.4285
▁بیاہ	-10.4286
▁کمپیوٹرز	-10.4287
▁دنیاوی	-10.4287
▁کینیڈا	-10.4288
▁اندھیرا	-10.4289
خراج	-10.4294
سنس	-10.4296
▁گونج	-10.4297
▁پینٹ	-10.4298
▁یوایس	-10.4299
▁مشیر	-10.43
▁احساسات	-10.4307
▁مفادات	-10.4307
▁یہودی	-10.4308
▁خریدنا	-10.4309
قصد	-10.431
▁اسلحے	-10.4313
▁مث	-10.4313
▁تیاریوں	-10.4313
▁فرشتوں	-10.4315
▁ادھور	-10.4316
▁نیاز	-10.4316
▁شفا	-10.4317
▁چھوٹا	-10.4318
جاز	-10.432
▁لمحے	-10.432
▁کنگن	-10.432
▁گاہک	-10.432
عام	-10.4322
▁فرمايیں	-10.4325
▁جزیر	-10.4325
وکیشن	-10.4325
▁پرواہ	-10.4325
▁بیندر	-10.4326
▁ہوٹل	-10.4328
▁ٹپ	-10.4328
▁روتے	-10.4328
▁گیسیں	-10.4329
▁تضاد	-10.4331
▁پڑھنے	-10.4331
▁فساد	-10.4332
▁رجوع	-10.4333
▁دوڑ	-10.4333
▁ہوچکی	-10.4334
▁فلسفی	-10.4334
▁القادری	-10.4335
▁مینڈ	-10.4335
پل	-10.4336
▁کھاو	-10.434
▁بايیک	-10.4342
▁تھاپا	-10.4345
▁غلطیوں	-10.4346
▁مچھ	-10.4347
عمال	-10.4348
▁حکام	-10.435
▁محب	-10.4351
▁پیمانے	-10.4352
▁عزیز	-10.4352
▁کھاتے	-10.4352
قانونی	-10.4353
▁تعین	-10.4355
راونڈ	-10.4356
▁نکلتا	-10.4356
▁پالیسیوں	-10.4356
▁کرنسی	-10.4357
▁شاپ	-10.4359
▁گزارنے	-10.436
▁مزدوروں	-10.436
▁سڑکیں	-10.436
▁حکمرانوں	-10.436
نوع	-10.4361
▁بیچار	-10.4362
▁ڈوب	-10.4363
▁اماں	-10.4364
▁مثالیں	-10.4364
▁معاہدہ	-10.4366
▁ایج	-10.4367
▁پرواز	-10.4368
▁طبقہ	-10.4373
▁کشم	-10.4373
وقت	-10.4375
رم	-10.4375
▁رنگین	-10.4378
▁دايروں	-10.4378
▁تھوڑے	-10.438
▁اسٹین	-10.4381
▁کلاس	-10.4381
▁حادثہ	-10.4387
▁ذہنوں	-10.4395
▁پڑتی	-10.4399
▁کویتی	-10.44
▁طبقات	-10.4401
▁سخ	-10.4401
برد	-10.4402
▁اطف	-10.4402
▁بنیادیں	-10.4408
▁یونی	-10.4412
▁گریبا	-10.4419
▁بڑھایا	-10.4425
▁سمجھوت	-10.4426
▁اندرون	-10.4427
▁اٹھانے	-10.4427
▁چھاپ	-10.4429
▁دعوی	-10.4429
▁عنہ	-10.4431
▁ہٹ	-10.4433
▁گانوں	-10.4436
▁بادل	-10.4436
▁اڑے	-10.4437
صال	-10.4451
▁فرما	-10.4452
▁تمہارا	-10.4456
▁چلتی	-10.4456
▁کوڑا	-10.4457
جمع	-10.4459
▁جاننا	-10.4461
یلے	-10.4462
▁شامیں	-10.4471
نسل	-10.4479
▁برہم	-10.448
▁میٹر	-10.4487
▁مٹ	-10.4488
▁چیک	-10.4491
▁اعداد	-10.4492
▁دروازے	-10.4492
▁عم	-10.4498
▁معطل	-10.4511
▁میٹرک	-10.4514
چی	-10.4514
گان	-10.4515
ناک	-10.4518
▁اگيے	-10.4519
▁دکھایا	-10.4519
▁دیکھتی	-10.4524
▁کھیت	-10.4534
▁حسی	-10.4535
▁سنادی	-10.4537
▁ٹریڈ	-10.454
▁تھوک	-10.4543
زايی	-10.4546
▁حالا	-10.4548
▁چاھی	-10.455
▁بم	-10.4551
▁بتوں	-10.4563
ٹھ	-10.4567
▁پاش	-10.457
پوٹر	-10.4571
▁امام	-10.4571
ادت	-10.4576
▁تلخی	-10.4577
▁الو	-10.4582
ڑی	-10.4587
▁ٹکرا	-10.4592
▁نشو	-10.4594
▁شروعات	-10.4605
▁دہراي	-10.4607
▁تصورات	-10.4609
▁مشق	-10.461
▁چاول	-10.4616
▁سینٹ	-10.4616
▁دشمنی	-10.4619
▁برمد	-10.4627
▁ملتے	-10.4629
فٹی	-10.4635
سال	-10.465
▁بینکوں	-10.4653
▁سنگا	-10.467
سویل	-10.4671
▁ڈٹ	-10.4673
▁مفتی	-10.4677
گيی	-10.4679
یوم	-10.4687
▁اجايے	-10.469
▁سگر	-10.4692
▁دیانت	-10.4692
▁عرو	-10.4702
▁مالیات	-10.4705
▁چوٹ	-10.4706
▁ہا	-10.4707
▁خرابی	-10.4716
▁ھوں	-10.4717
▁صنعتی	-10.4724
▁گراف	-10.4724
سايٹ	-10.4733
ليے	-10.4734
▁یوم	-10.4735
▁ملاح	-10.4737
▁اسٹیل	-10.4751
یلی	-10.4758
سپین	-10.4769
▁جگہیں	-10.4775
بڑا	-10.4777
▁چنا	-10.4779
▁فٹ	-10.478
▁گورن	-10.478
▁نجی	-10.4784
▁فیکٹ	-10.4792
منڈ	-10.4797
▁لیجيے	-10.4799
▁بیٹھو	-10.4802
▁دید	-10.4805
▁کھلے	-10.4806
اعت	-10.482
یسٹرن	-10.4821
▁پکڑ	-10.4822
یا۔	-10.4828
▁دہل	-10.4829
▁دباي	-10.4832
بے	-10.4836
قہ	-10.4842
▁غار	-10.4864
▁بق	-10.4869
▁لگايیں	-10.4883
▁گنا	-10.4885
▁اسلم	-10.4889
▁کررہ	-10.4899
گن	-10.4932
ايق	-10.4932
▁حص	-10.4945
عل	-10.4945
▁انتقام	-10.4947
▁جرمان	-10.4952
▁ممکنہ	-10.4953
مٹ	-10.4954
▁کافر	-10.4956
▁ٹاس	-10.496
▁چھلا	-10.498
گرداں	-10.5013
تدریج	-10.5014
سز	-10.5015
▁شری	-10.5042
▁ايل	-10.5045
▁فارم	-10.5048
▁جام	-10.5052
▁طر	-10.5054
▁پکڑا	-10.5059
▁باہم	-10.506
▁سجاد	-10.5063
کمل	-10.5065
▁دھک	-10.5068
شم	-10.5071
صاب	-10.5083
▁لٹکا	-10.5085
▁ہتھیا	-10.5088
سلو	-10.5094
▁کےليے	-10.5101
الرحمن	-10.5104
▁مضبوطی	-10.5107
▁لايی	-10.5109
پورٹ	-10.5112
گل	-10.5116
▁امدن	-10.5132
شیڈ	-10.515
▁نیر	-10.5162
▁دھونا	-10.5171
▁شش	-10.5171
▁کویت	-10.5173
▁انس	-10.5173
رات	-10.5183
نھیں	-10.5189
▁حلے	-10.5189
▁لٹ	-10.5194
درس	-10.5205
فیہ	-10.5206
جھ	-10.5209
▁سطحی	-10.5211
▁فرح	-10.5214
جاد	-10.522
▁صن	-10.5224
▁حکومتیں	-10.5243
لتا	-10.5244
▁سکھا	-10.5247
چنب	-10.525
ھاڑ	-10.5257
▁جنس	-10.5271
▁!	-10.5292
ير	-10.5295
مس	-10.5315
▁ہندس	-10.5321
▁جیو	-10.5333
▁تیاری	-10.539
▁بیو	-10.5392
▁پرست	-10.5436
▁گرام	-10.5462
زی	-10.5467
▁پکے	-10.5472
▁دھلا	-10.5476
غام	-10.548
▁گیل	-10.5493
▁پال	-10.5501
حان	-10.5518
▁بلی	-10.5528
تھن	-10.554
اسپورٹ	-10.5553
▁اپن	-10.5573
▁ممبر	-10.5576
ینگ	-10.5611
شنز	-10.5614
▁دلیر	-10.5621
توجہ	-10.5624
▁دھ	-10.5638
▁زہر	-10.5647
ویت	-10.5659
ودگی	-10.5661
یو	-10.5665
مض	-10.5665
▁ربا	-10.5679
نڈا	-10.5683
▁المی	-10.5691
▁ہوسک	-10.5698
فارم	-10.5699
▁کسان	-10.5709
▁كو	-10.5709
▁احیا	-10.5713
ايیاں	-10.5714
▁2663072	-10.5718
▁لمب	-10.5738
▁شل	-10.5741
▁براي	-10.5742
وال	-10.5797
امت	-10.5819
▁سود	-10.5821
▁نکم	-10.5823
ايز	-10.5833
▁جیتا	-10.5845
▁نق	-10.585
▁اق	-10.586
سکتا	-10.587
ايس	-10.5886
▁فار	-10.591
▁ظہ	-10.5928
اونٹ	-10.5933
قید	-10.5949
▁سون	-10.5966
راک	-10.5966
تاز	-10.5972
بان	-10.5994
مند	-10.6007
▁مسیحا	-10.6021
کنگ	-10.6061
نبی	-10.6093
▁گھومت	-10.6097
وايے	-10.6125
▁کردیت	-10.6126
▁فارو	-10.6127
افر	-10.6142
▁اسٹریل	-10.6161
ادیا	-10.6165
▁بنو	-10.6203
▁کھیلن	-10.622
▁داي	-10.6226
▁لاد	-10.6239
▁اڑا	-10.6245
▁خزا	-10.6246
نان	-10.6295
▁پانچو	-10.6322
ارے	-10.6327
▁لین	-10.6329
▁جاں	-10.6357
ستہ	-10.6366
▁عج	-10.6381
▁وین	-10.6382
دھ	-10.6391
واز	-10.6404
▁سمجھی	-10.6407
وب	-10.6426
▁دوس	-10.6491
▁نک	-10.6501
▁ڈھو	-10.6504
دال	-10.651
▁اچھ	-10.6514
▁اکر	-10.6521
▁شوکا	-10.6521
▁افت	-10.6531
۔۔۔	-10.6547
يں	-10.6553
▁فا	-10.659
▁زون	-10.6594
▁ڈو	-10.6603
▁حی	-10.6614
ستا	-10.663
کیوں	-10.6647
▁داد	-10.6656
گس	-10.6662
ندی	-10.6679
کلف	-10.6689
رانی	-10.669
▁بچھ	-10.669
▁منی	-10.6708
▁نمٹ	-10.6708
میم	-10.6737
▁اٹھتا	-10.674
▁بتان	-10.6744
▁مذ	-10.6756
▁معم	-10.676
▁جات	-10.6793
▁ٹکر	-10.6801
▁نمکی	-10.6815
▁بالغ	-10.6815
ویل	-10.6831
▁شکو	-10.6846
▁مسیح	-10.6847
▁نواب	-10.6852
عب	-10.6866
▁شکای	-10.6897
▁دوب	-10.6912
لیل	-10.6915
▁بیانی	-10.6933
زپر	-10.6938
▁ہرا	-10.6939
رد	-10.6962
▁ڈھا	-10.6978
یسر	-10.6984
▁اسکر	-10.7032
ازی	-10.7049
▁میٹ	-10.7065
ہمت	-10.7072
▁جاے	-10.7081
▁محل	-10.7083
کھايیں	-10.7096
ربی	-10.7102
اسی	-10.7106
یکدم	-10.7125
فا	-10.7126
▁تھام	-10.7126
ہاں	-10.7144
▁اپشن	-10.7184
دم	-10.7186
▁الش	-10.7219
▁نوب	-10.7232
▁سیکھن	-10.7238
▁مايیک	-10.725
اباد	-10.7264
گے	-10.7279
▁برٹ	-10.728
▁شان	-10.7282
▁جاوں	-10.7293
تھا	-10.7309
▁کانگر	-10.7312
واب	-10.7316
▁رون	-10.7322
▁اح	-10.7324
▁ویل	-10.7347
کارا	-10.7347
لسط	-10.7363
ايیٹ	-10.737
▁سرو	-10.7385
▁پرور	-10.739
▁کلیم	-10.7405
▁ارہے	-10.741
▁2663073	-10.7413
غیب	-10.7416
▁عن	-10.742
▁اقا	-10.742
▁کرلیتے	-10.7427
▁وس	-10.7429
▁روی	-10.7437
ايم	-10.7483
افت	-10.7489
▁کرچک	-10.7496
▁تار	-10.7502
نرم	-10.7507
ٹرن	-10.7519
▁سیکھا	-10.7523
سطو	-10.7575
ندھے	-10.7584
▁اجرا	-10.759
▁ست	-10.7593
▁امو	-10.7607
▁سرد	-10.7611
▁مفت	-10.7621
وق	-10.7627
نیا	-10.765
▁گریز	-10.7659
▁بان	-10.7661
فل	-10.7679
▁کشت	-10.7694
منٹوں	-10.7717
▁انھی	-10.7719
▁صح	-10.7739
▁خاصی	-10.7745
▁رکھیں	-10.7754
▁صو	-10.7777
رويے	-10.7809
وسٹا	-10.7814
▁زن	-10.782
▁خوان	-10.7831
▁فرش	-10.7851
چس	-10.7856
▁بڑ	-10.7859
ہونگی	-10.7861
کاروں	-10.7894
▁راشد	-10.7901
▁بام	-10.7929
یفہ	-10.7942
▁فلس	-10.7967
▁ریگولی	-10.798
ریں	-10.7983
▁مف	-10.8008
طر	-10.8011
▁سینیٹ	-10.8013
شر	-10.8042
اوٹ	-10.8043
وڑ	-10.8046
یٹری	-10.8056
▁لیک	-10.806
▁يی	-10.8066
طہ	-10.8075
▁نظ	-10.808
▁سوپ	-10.8086
کافی	-10.8089
امہ	-10.8099
یلین	-10.8105
▁ہنست	-10.8124
دور	-10.8132
ہار	-10.8132
انٹی	-10.8138
امد	-10.8147
▁عز	-10.8169
دان	-10.8184
پھر	-10.82
▁بڑھت	-10.8211
غیر	-10.8215
لک	-10.8216
اک	-10.8223
▁غا	-10.8244
درا	-10.8246
▁برت	-10.827
▁اٹھايی	-10.83
▁اکاي	-10.8318
نسی	-10.8339
ولین	-10.8351
▁عا	-10.8354
ستگی	-10.8354
مایہ	-10.8364
بری	-10.8372
کھلا	-10.8397
لتے	-10.8408
لایا	-10.8415
اح	-10.842
عوام	-10.8447
طرح	-10.8459
مانت	-10.8463
سکری	-10.8465
منی	-10.8479
شے	-10.8494
نیو	-10.8495
کلام	-10.8501
تعلق	-10.8503
کیليے	-10.8505
▁جانیں	-10.852
گاروں	-10.852
▁حصو	-10.8529
▁نگ	-10.8542
ادی	-10.856
▁راي	-10.8568
طرف	-10.8581
ریا	-10.8587
▁نسلی	-10.8595
توں	-10.8598
▁ايس	-10.8602
6	-10.862
نايی	-10.8627
میز	-10.8634
قریب	-10.8654
میرے	-10.8665
مسيلہ	-10.8668
▁خم	-10.8671
▁سیک	-10.8682
ويی	-10.8686
فاينل	-10.8695
▁مقبو	-10.8696
▁ارش	-10.87
فوج	-10.871
خو	-10.8711
▁رٹ	-10.872
رنگ	-10.8735
▁ڈیو	-10.8736
خود	-10.8753
بت	-10.8759
خدا	-10.8766
صحیح	-10.8767
ہٹ	-10.8779
▁سرگرم	-10.8781
زید	-10.8781
▁ماند	-10.879
خیر	-10.8794
سٹنٹ	-10.8794
احمد	-10.8796
چل	-10.8803
بھ	-10.8805
گھنٹے	-10.8818
معطل	-10.8821
پرستی	-10.8823
تجرب	-10.8829
پرندے	-10.8829
ویمن	-10.8836
▁ایش	-10.8837
▁مچ	-10.8839
لاين	-10.884
بچن	-10.884
▁عبدال	-10.8859
▁ویٹ	-10.886
زمان	-10.8863
خصوصی	-10.8863
وزارت	-10.8863
▁تہ	-10.8865
ویسٹ	-10.8868
چلتا	-10.8869
حیات	-10.888
کشن	-10.8888
چلا	-10.8898
غرض	-10.8903
اظہر	-10.8912
مرد	-10.8918
▁منات	-10.8923
پی	-10.8927
▁برباد	-10.8932
▁لان	-10.8936
پاکستانی	-10.8952
فیکٹ	-10.896
▁ضوع	-10.8961
▁ہالی	-10.8962
طریق	-10.8962
یرا	-10.8969
مقد	-10.8972
▁چالیس	-10.8983
ندیم	-10.899
▁جیل	-10.8996
يس	-10.8997
دق	-10.8999
سارے	-10.9001
▁ایسو	-10.9003
▁خا	-10.9006
پولین	-10.9013
ودی	-10.9022
جاو	-10.903
▁متوا	-10.9031
قب	-10.9039
جدید	-10.9051
▁عش	-10.9056
▁دعو	-10.9056
▁حادث	-10.9061
بیر	-10.9064
▁علاق	-10.9073
ڑھ	-10.9079
لگت	-10.9094
▁نما	-10.9094
▁فلسف	-10.9101
▁رفتار	-10.9104
▁اخلاق	-10.911
▁رہنماي	-10.9112
کايو	-10.9112
ایف	-10.9112
شہ	-10.9121
▁پہچان	-10.9121
▁ڈاي	-10.9124
▁شمال	-10.9128
▁حر	-10.913
▁اندھیر	-10.9131
▁گیٹ	-10.9139
ہیر	-10.9142
جھل	-10.9142
▁کینیڈ	-10.9143
▁رح	-10.9145
▁مرض	-10.9148
مزاج	-10.9151
ضم	-10.9153
▁ڈاک	-10.9155
▁تمھار	-10.9156
جد	-10.9156
شاء	-10.9157
ظہر	-10.9161
▁خدش	-10.9165
▁ایپل	-10.9166
▁تماش	-10.9169
ٹے	-10.9172
پاس	-10.9176
▁سجا	-10.9177
▁نار	-10.9178
▁مصیبت	-10.9182
▁بزرگ	-10.9182
حال	-10.9185
▁تصو	-10.919
سپیشل	-10.919
▁بناو	-10.9193
نٹوں	-10.9199
▁تاجر	-10.9206
▁سنبھ	-10.9206
پہر	-10.9207
▁بوتل	-10.9207
▁معاشر	-10.9209
▁اسپنر	-10.9213
بلڈن	-10.9214
▁ارتھ	-10.9217
▁پگھل	-10.9217
▁کي	-10.9219
▁کارروايی	-10.9222
▁انتظام	-10.9223
عموم	-10.9225
▁رجسٹر	-10.9226
کنالوجی	-10.9227
ڈونلڈ	-10.9228
؛	-10.9228
▁ارطغرل	-10.9228
▁اطمینان	-10.9228
▁الیگزینڈر	-10.9228
▁انسٹاگرام	-10.9228
▁تعصب	-10.9228
▁ریفریجریٹر	-10.9228
▁زخرف	-10.9228
▁سويٹزر	-10.9228
▁فراوانی	-10.9228
▁قلندرز	-10.9228
▁لیورپول	-10.9228
▁مترادف	-10.9228
▁متنازع	-10.9228
▁منافقت	-10.9228
▁موروثی	-10.9228
▁ڈویلپمنٹ	-10.9228
▁ہپناٹزم	-10.9228
▁یرغمال	-10.9228
▁احترام	-10.9229
▁امرتسر	-10.9229
▁امريکا	-10.9229
▁تضحیک	-10.9229
▁ذخیرہ	-10.9229
▁رچرڈ	-10.9229
▁صفحات	-10.9229
▁صوبايی	-10.9229
▁متحرک	-10.9229
▁اغیار	-10.9229
▁اکھٹے	-10.9229
▁دھندلا	-10.9229
▁اغوش	-10.9229
▁عصبیت	-10.9229
▁مخواہ	-10.9229
▁پرعزم	-10.9229
▁ڈپریشن	-10.9229
▁مفروض	-10.9229
▁رنویر	-10.9229
▁صفحوں	-10.9229
▁چارپايی	-10.9229
▁جمشید	-10.9229
▁لپیٹ	-10.9229
▁مختاری	-10.9229
▁بگاڑ	-10.9229
▁تلفظ	-10.9229
▁زنجیر	-10.9229
▁بطخ	-10.9229
▁شراکت	-10.9229
▁منصور	-10.9229
▁التجا	-10.9229
▁عیسايی	-10.9229
▁نصیحت	-10.9229
▁پراپرٹی	-10.9229
▁ابوظہبی	-10.9229
▁ڈیبیو	-10.9229
تفریح	-10.9229
▁بخش	-10.9229
▁احمق	-10.9229
▁پرتگال	-10.9229
▁وايرل	-10.9229
▁دوھری	-10.9229
▁شیٹھی	-10.9229
▁قابض	-10.9229
▁جھومت	-10.9229
▁تڑپ	-10.9229
▁عبرتناک	-10.9229
▁رفیق	-10.9229
▁مودودی	-10.9229
▁عیاش	-10.9229
▁قبايل	-10.9229
▁لاگت	-10.9229
▁پسماند	-10.9229
▁کنندگان	-10.9229
▁مراکش	-10.9229
▁لالیگا	-10.9229
بندرگاہ	-10.9229
▁پھینک	-10.9229
▁صالح	-10.9229
▁رسنل	-10.9229
▁دھماک	-10.9229
▁مصوری	-10.9229
▁صحبت	-10.9229
▁مخدو	-10.9229
▁ٹھہرے	-10.9229
▁ايیڈیا	-10.9229
▁قطع	-10.9229
▁مبارکباد	-10.9229
▁امارات	-10.9229
▁عہدیدار	-10.9229
▁محکوم	-10.9229
▁محتسب	-10.9229
ٹیفکیٹ	-10.9229
▁پھینٹ	-10.9229
▁کلچر	-10.9229
▁نچلے	-10.9229
▁عطا	-10.9229
▁حیوان	-10.9229
▁گنوايیں	-10.9229
▁سراپا	-10.9229
▁کنسول	-10.9229
▁تکثیری	-10.9229
▁الناس	-10.9229
▁حاکمیت	-10.9229
▁رشوت	-10.923
▁فراڈ	-10.923
▁شرمسار	-10.923
▁پسینہ	-10.923
▁زڈیسک	-10.923
▁نرسری	-10.923
▁ناممکن	-10.923
▁دانشمند	-10.923
▁واریاں	-10.923
▁نرالا	-10.923
▁کھینچ	-10.923
▁مدعی	-10.923
▁کلنڈر	-10.923
▁چمچ	-10.923
▁توقیر	-10.923
پايلٹ	-10.923
▁نشست	-10.923
▁جھاگ	-10.923
▁اذان	-10.923
▁حجم	-10.923
▁ہمراہیوں	-10.923
▁عبرت	-10.923
▁2663066	-10.923
▁صداقت	-10.9231
▁بازیچہ	-10.9231
▁رجسٹرڈ	-10.9231
▁اعضا	-10.9231
▁پیرہن	-10.9231
▁قطار	-10.9231
قیقہ	-10.9232
▁سفرنامہ	-10.9232
▁شوٹنگ	-10.9232
▁کمنٹری	-10.9232
▁پودوں	-10.9232
▁کھاگيی	-10.9232
کثیر	-10.9232
▁مروڑ	-10.9232
▁فرانسیسی	-10.9232
▁پیچیدگی	-10.9232
▁ہنگری	-10.9232
▁شرارت	-10.9232
▁فریزر	-10.9232
▁ہستی	-10.9232
▁عبداللہ	-10.9232
▁امراض	-10.9232
▁گھٹتی	-10.9233
▁کنکشن	-10.9233
▁کراٹے	-10.9233
▁واجب	-10.9233
▁لسانی	-10.9233
▁عددی	-10.9233
▁انارکی	-10.9233
▁کارخانے	-10.9233
▁کےپاوں	-10.9233
▁سادگی	-10.9233
▁ہاشم	-10.9233
▁زلف	-10.9233
▁نظرانداز	-10.9234
▁چایيے	-10.9234
▁زاہد	-10.9234
▁ریچھ	-10.9234
▁شاعرانہ	-10.9234
▁بگول	-10.9234
▁ساڑھے	-10.9235
▁سیلاب	-10.9235
▁سیدھا	-10.9235
▁واردات	-10.9235
▁عص	-10.9235
▁کارروايیاں	-10.9235
▁ڈرافٹ	-10.9235
▁ہفتہ	-10.9236
▁چکھتے	-10.9237
▁تاویل	-10.9237
▁مولبی	-10.9237
▁اکانٹ	-10.9237
▁صدارت	-10.9237
▁اٹلانٹک	-10.9237
تکاروں	-10.9237
▁مولوی	-10.9237
▁ضرب	-10.9237
▁ماتھے	-10.9238
▁پلیير	-10.9238
▁مجبوریاں	-10.9238
▁ترسیل	-10.9238
▁گرہن	-10.9238
▁ڈايری	-10.9239
▁تجلی	-10.9239
محاورہ	-10.9239
▁چیمہ	-10.9239
▁ارتکا	-10.924
▁امیج	-10.924
▁پگھلنا	-10.924
▁تیتر	-10.924
▁مچھلی	-10.924
▁جانبدار	-10.924
▁کشمش	-10.924
▁مشکوک	-10.924
▁فلاپ	-10.9242
▁سینما	-10.9242
▁ٹوپ	-10.9243
▁جہنوں	-10.9244
▁ٹويٹر	-10.9244
▁البرٹ	-10.9244
▁سانح	-10.9244
▁گذار	-10.9244
▁اکڑ	-10.9244
▁فارمول	-10.9244
▁لیموں	-10.9244
ٹیڈ	-10.9245
یکٹ	-10.9245
▁اکھٹا	-10.9245
▁اسپنرز	-10.9245
▁صابر	-10.9246
▁افیسر	-10.9246
▁پٹرول	-10.9247
▁سرگرمیاں	-10.9247
▁ایمرجن	-10.9248
ڈرڈ	-10.9248
▁ماہانہ	-10.9249
▁گرگیا	-10.9249
حفظ	-10.9249
▁اسلاف	-10.925
▁اڑانے	-10.925
▁تمھیں	-10.925
▁چودہ	-10.925
▁معرض	-10.925
سکی	-10.9251
▁فردوس	-10.9252
▁کسٹم	-10.9253
▁افسانے	-10.9253
▁افکار	-10.9255
▁ماخذ	-10.9256
اخذ	-10.9257
▁پروف	-10.9258
▁رسیدہ	-10.9259
▁سپی	-10.926
▁جمی	-10.9261
▁ستاروں	-10.9261
▁تراش	-10.9261
▁فاش	-10.9261
چک	-10.9262
▁پیشیاں	-10.9262
▁دانشور	-10.9263
▁پرامید	-10.9263
▁چیخنے	-10.9263
▁کفن	-10.9263
▁بھگ	-10.9263
▁دھرنا	-10.9264
▁امرال	-10.9264
▁فیول	-10.9265
▁خلیج	-10.9265
▁براوز	-10.9265
▁چنتے	-10.9266
رندے	-10.9266
▁حقانی	-10.9267
▁فوڈ	-10.9268
▁ضابطے	-10.9268
▁ریٹ	-10.9269
▁کھلوا	-10.9269
▁مغل	-10.9271
▁کوچنگ	-10.9271
▁رام	-10.9272
▁سنسنا	-10.9273
اموش	-10.9274
▁ٹھاک	-10.9274
▁اورشواہد	-10.9274
▁گفتار	-10.9274
▁گرینڈ	-10.9275
▁بزرگوں	-10.9275
▁مصیبتوں	-10.9275
▁پیچید	-10.9275
▁سربیا	-10.9276
▁زاي	-10.9278
▁ایکسپ	-10.9279
▁جفا	-10.9279
ھايیاں	-10.9279
▁بہانے	-10.928
▁بکرا	-10.928
▁غزال	-10.9282
▁جسوال	-10.9283
▁سین	-10.9283
▁بلاگ	-10.9283
▁ارتھر	-10.9283
▁کہانیاں	-10.9284
▁فالٹ	-10.9284
▁روبوٹس	-10.9285
▁دکھايے	-10.9285
▁کامرس	-10.9285
▁وحد	-10.9286
▁ہیروز	-10.9286
▁جلتی	-10.9287
▁عمان	-10.9287
زادی	-10.929
حید	-10.929
▁ڈانس	-10.9291
▁ہوجايیں	-10.9291
▁زرد	-10.9292
▁سکھانے	-10.9292
▁پھٹی	-10.9294
▁داریاں	-10.9295
▁اشع	-10.9295
▁اشد	-10.9298
▁بالرز	-10.9298
▁پرومو	-10.9298
▁یونايیٹڈ	-10.9298
▁شايد	-10.9298
▁قرب	-10.9301
▁مسلماں	-10.9302
▁بھلايی	-10.9302
▁نقد	-10.9304
▁پرکھتے	-10.9307
▁جامع	-10.9308
ضارب	-10.9308
▁بلیک	-10.9308
▁زیور	-10.9308
▁نامی	-10.9308
▁مرحل	-10.9309
▁گٹھ	-10.931
▁یوسین	-10.9312
▁پزیر	-10.9315
▁ٹانک	-10.9315
▁مینج	-10.9317
▁پیدل	-10.9317
▁مارکس	-10.9318
▁برامدات	-10.9321
▁پھیلاو	-10.9321
▁مضر	-10.9321
▁اکیس	-10.9322
▁غنی	-10.9327
▁ستم	-10.9327
▁ڈھونڈو	-10.933
▁ناق	-10.9331
▁2663074	-10.9331
▁بھا	-10.9332
▁حصوں	-10.9333
▁پرفارم	-10.9336
▁پتھروں	-10.9336
▁خرابیوں	-10.9336
▁مرگ	-10.9337
▁پہچانا	-10.9338
▁اربوں	-10.9338
▁نذر	-10.934
رشل	-10.9342
▁متعد	-10.9344
لات	-10.9345
▁اطلاع	-10.9345
تجو	-10.9347
▁سنبھالو	-10.9347
▁دادا	-10.9348
▁رشتوں	-10.9351
▁سمجھایا	-10.9354
▁ساين	-10.9354
شکر	-10.9354
▁پہنتیں	-10.9355
▁ضیا	-10.9355
▁موافق	-10.9356
▁بشر	-10.9356
▁قاری	-10.9357
▁ظالم	-10.9358
▁گزرتی	-10.9359
▁رویوں	-10.9361
▁لگتاہے	-10.9362
▁ٹھکانہ	-10.9362
▁بیشک	-10.9363
▁طیارہ	-10.9364
▁کمزوریوں	-10.9364
▁گروی	-10.9364
▁پٹھ	-10.9364
▁پیچ	-10.9364
▁نوح	-10.9364
میخانے	-10.9365
▁سیلم	-10.9365
رل	-10.9366
▁ناشتہ	-10.9369
▁بدلتی	-10.937
▁نقصانات	-10.937
چکا	-10.9371
▁داتا	-10.9373
▁رفتاری	-10.9375
شدد	-10.9376
▁پول	-10.9381
▁لیول	-10.9382
پاک	-10.9383
▁کبیر	-10.9385
▁جوتوں	-10.9386
یڈن	-10.9387
▁ڈیپ	-10.9388
▁بوسن	-10.939
حاشی	-10.9391
▁رنج	-10.9393
فید	-10.9395
اث	-10.9395
▁مسافروں	-10.9397
▁ثم	-10.9398
▁الاقوامی	-10.9401
▁نجوم	-10.9402
▁ایپلی	-10.9402
▁دیوی	-10.9403
▁واسطہ	-10.9405
▁لرز	-10.941
کمال	-10.941
▁اسکیم	-10.9412
▁کاغذ	-10.9414
▁متوقع	-10.9415
▁اڑتالیس	-10.9415
طبیعیات	-10.9418
▁نمايند	-10.9419
▁ہاوسز	-10.9421
▁کولمب	-10.9422
چھاڑ	-10.9423
▁مردوں	-10.9424
▁ڈگر	-10.9426
▁اگلی	-10.9426
▁گردانی	-10.9434
ریسنگ	-10.9437
دعا	-10.9437
▁فالو	-10.944
▁شرک	-10.944
▁دستور	-10.9444
▁سینڈ	-10.9445
▁تقاضے	-10.9447
▁سمجھانے	-10.9447
▁ہنگامے	-10.9448
▁ہوجاتی	-10.9448
▁وايٹ	-10.9452
▁مجبوری	-10.9453
▁اجمل	-10.9454
ناصر	-10.9455
▁گہرے	-10.9456
▁دوراں	-10.9456
▁دفا	-10.946
قسمت	-10.9461
▁نمبری	-10.9461
▁رنگنا	-10.9464
▁عبد	-10.9464
▁پناہی	-10.9464
▁غز	-10.9466
▁موج	-10.9466
تبادل	-10.9467
▁ستار	-10.9472
▁دھونے	-10.9473
قعہ	-10.948
▁نسبتا	-10.9481
▁چالیسو	-10.9483
▁يندہ	-10.9484
▁بچار	-10.9487
نجی	-10.9491
اطل	-10.9491
▁بیداری	-10.9494
▁دیوار	-10.9494
▁سستی	-10.9495
▁کیاجايے	-10.9496
الحکومت	-10.9497
▁پرس	-10.9499
▁جکڑ	-10.9501
یقین	-10.9504
▁سکھاتا	-10.9507
▁پخت	-10.9511
زاد	-10.9511
▁بیگ	-10.9511
▁هے	-10.9513
▁شرما	-10.9516
زح	-10.9517
▁مولا	-10.9519
▁رسما	-10.952
▁الل	-10.9522
دھن	-10.9523
▁ملاقاتیں	-10.9524
رون	-10.9525
عباس	-10.9528
شمول	-10.953
▁لکھاری	-10.9551
لطاف	-10.9557
دربار	-10.9558
ضہ	-10.9558
اتھ	-10.9561
▁مفا	-10.9561
▁بابل	-10.9562
ظہ	-10.9563
▁ازال	-10.9565
▁زیریں	-10.9569
▁پینت	-10.9572
لاينس	-10.9576
▁وارم	-10.9578
▁ہولڈر	-10.9579
▁نکلنے	-10.9585
▁نڈال	-10.9587
▁درمد	-10.9587
عی	-10.9589
▁نیٹ	-10.9592
▁سوتی	-10.9599
▁پالی	-10.9599
▁جڑ	-10.9606
▁سربراہوں	-10.9613
▁مصروفی	-10.9615
▁چھوٹ	-10.9615
▁کہلات	-10.9616
▁ندیم	-10.9618
داشت	-10.9618
انشاءاللہ	-10.9621
▁میاوں	-10.9625
▁غالبا	-10.9628
نڈال	-10.9629
▁ریاضی	-10.964
لعے	-10.9645
ض	-10.9646
مپاير	-10.965
یکشن	-10.965
▁تجھے	-10.965
▁ٹرک	-10.9653
▁دوايی	-10.9668
▁ہوجاتے	-10.967
▁مانے	-10.9671
▁گرفتار	-10.9671
▁ملکیت	-10.9682
▁جزا	-10.9687
▁پچ	-10.9687
نڈی	-10.9692
▁امیہ	-10.9708
▁خاکے	-10.9708
▁عہدے	-10.9709
یدہ	-10.9718
ومنٹ	-10.9724
▁رويے	-10.9724
▁محرک	-10.9727
▁بڑھاپ	-10.9729
▁ہیير	-10.9729
▁سٹنٹ	-10.9731
▁میڈل	-10.9736
▁قض	-10.9739
▁لیگز	-10.974
▁نش	-10.9743
▁لباد	-10.9749
▁جلس	-10.9755
اٹھ	-10.9762
ذکر	-10.9763
ولپ	-10.9776
ملہ	-10.9779
▁مقد	-10.9781
ارٹ	-10.9785
ٹنگ	-10.9796
▁ایکڑ	-10.9804
▁ریڈ	-10.9804
▁چلیے	-10.9822
▁ریل	-10.9823
مال	-10.9826
رامد	-10.9828
▁بحرین	-10.9832
▁پاسدار	-10.9846
▁ڈومی	-10.9858
▁ڈسپ	-10.9858
▁بولو	-10.986
خی	-10.9865
شرف	-10.987
▁گز	-10.9892
یشل	-10.9902
▁خبروں	-10.9906
▁عد	-10.9907
▁قبر	-10.9912
ہل	-10.9919
▁بھلی	-10.9922
▁شکری	-10.9934
▁جنات	-10.9934
▁ڈالے	-10.9938
▁ویرا	-10.9938
▁غر	-10.9946
▁رف	-10.9952
▁مہارا	-10.9963
▁يرلینڈ	-10.9967
نج	-10.9968
▁افرا	-10.9973
▁کینٹ	-10.9973
▁2663076	-10.9977
ابط	-10.9983
▁کانام	-10.9992
▁پیٹر	-10.9997
▁شرمند	-10.9998
مدار	-10.9999
ژا	-11.0003
▁میٹھ	-11.0013
▁جبلی	-11.0022
▁مبادل	-11.0031
ہام	-11.004
▁تعمیرات	-11.004
▁لیو	-11.0047
▁رنگا	-11.0047
▁فلیٹ	-11.0051
رواں	-11.0054
▁کیساتھ	-11.0059
▁طل	-11.0061
▁دیکر	-11.0071
▁تھم	-11.0079
▁چاک	-11.008
▁صلیب	-11.0082
سیر	-11.0095
ڑو	-11.0098
▁اولمپ	-11.0108
▁کھچ	-11.0111
▁دھايی	-11.0115
▁سلا	-11.0118
▁اسما	-11.0122
▁جاگن	-11.0126
▁الم	-11.0126
وریت	-11.0131
وگرا	-11.014
▁سرم	-11.0146
▁خشو	-11.0162
نگے	-11.0165
يع	-11.0167
▁پھرتا	-11.0179
جنگ	-11.0183
بشار	-11.0185
▁پولٹ	-11.0188
▁ٹینک	-11.0193
▁نبھان	-11.0194
الکل	-11.0197
▁ٹاکر	-11.0204
▁شین	-11.0204
چے	-11.0207
▁بارہو	-11.0208
▁کھایا	-11.0221
▁برايی	-11.0225
▁چلت	-11.0233
صت	-11.0234
▁ہیڈ	-11.0234
▁بھیگ	-11.0234
رح	-11.0242
▁رہنی	-11.0242
مراہ	-11.0251
یشیا	-11.0254
▁چاہیں	-11.0258
▁اصولی	-11.0259
▁ندا	-11.0259
▁اعت	-11.0263
ٹرا	-11.0265
کلیير	-11.0269
ریال	-11.0283
قاعدگی	-11.0284
▁مک	-11.03
▁استعمار	-11.0325
جہ	-11.0357
حیف	-11.0363
برادر	-11.0404
▁مالا	-11.0409
ٹرولیم	-11.0419
▁بیٹھتے	-11.0419
▁لذ	-11.042
مر	-11.0424
▁ورکر	-11.0424
دوار	-11.0425
▁جھل	-11.0434
▁لگاو	-11.0442
▁معت	-11.0455
▁گری	-11.0466
▁خیالوں	-11.0478
سکتے	-11.0484
▁سہا	-11.0484
فاق	-11.0487
▁پھولو	-11.0501
ٹیک	-11.0507
▁نجا	-11.0508
▁گنوا	-11.0509
ناء	-11.0511
▁ایما	-11.0516
ردست	-11.0528
▁افق	-11.0538
عطل	-11.0553
يیاں	-11.0555
▁زبانی	-11.0555
▁2663069	-11.0573
▁معی	-11.058
▁مادر	-11.0591
▁انجم	-11.0592
ٹوک	-11.0597
▁ولی	-11.0602
▁گھٹ	-11.0607
کیشن	-11.0611
صرف	-11.0616
قاعدہ	-11.0619
کلم	-11.0619
رسبز	-11.0625
نسان	-11.0626
▁ریگول	-11.0651
راء	-11.0655
رفت	-11.0658
▁جاي	-11.0664
رقوم	-11.0675
▁نکھ	-11.0676
▁اچھل	-11.0679
ویلی	-11.0686
رن	-11.0687
▁ه	-11.0687
▁کرت	-11.0692
▁سٹریلی	-11.0698
▁دکھاو	-11.0702
▁جگ	-11.0702
▁بھرو	-11.0709
▁دستر	-11.0717
ریل	-11.0721
لڑا	-11.0724
▁عمرا	-11.0734
ارش	-11.0741
▁وار	-11.0753
▁کھی	-11.0756
▁قم	-11.0786
▁وزیراع	-11.0794
سٹوری	-11.0795
▁اڑ	-11.08
بازی	-11.081
▁فہمی	-11.0813
ندا	-11.0816
▁اصلا	-11.0816
▁سول	-11.0824
بع	-11.083
کھاتی	-11.0832
جس	-11.0839
▁اجر	-11.0844
▁راشدی	-11.0849
▁متشک	-11.0864
ایس	-11.0874
فرما	-11.0877
سٹار	-11.0884
دگی	-11.0887
گٹ	-11.0893
▁خاصا	-11.092
▁مکین	-11.0926
▁لڑن	-11.0926
▁انسٹا	-11.0928
اڑ	-11.0954
▁شہرہ	-11.0958
▁دم	-11.0963
▁زید	-11.0987
سٹریٹ	-11.1006
گرہ	-11.1033
▁مانی	-11.105
وگل	-11.105
▁بیٹھی	-11.1056
ورت	-11.1084
▁کنڈی	-11.1089
▁شیر	-11.1091
▁گنج	-11.1103
▁قیمتی	-11.1105
37	-11.1116
▁ترا	-11.113
▁ریسل	-11.1162
قبال	-11.1166
▁ساي	-11.1186
دا	-11.119
▁لغ	-11.1198
▁مارٹ	-11.1209
ٹیفک	-11.1223
▁بدلو	-11.1226
▁گايے	-11.1234
انڈے	-11.1238
▁بھو	-11.1248
▁دام	-11.1251
حیر	-11.1252
مان	-11.1278
وکروں	-11.1285
شو	-11.1288
▁کرايی	-11.1289
تک	-11.1308
▁عض	-11.1313
▁پیشہ	-11.1321
▁ساتھی	-11.1329
▁ڈالو	-11.1342
ٹا	-11.1342
▁پٹ	-11.1387
▁چمکت	-11.1388
کھنے	-11.1403
▁کھیلے	-11.1404
▁مین	-11.1428
▁مشکو	-11.1435
ران	-11.1443
▁ہون	-11.1452
▁دھڑ	-11.1466
یٹر	-11.1485
عزیر	-11.1486
افی	-11.1487
▁کويل	-11.152
لیٹ	-11.1538
▁کرايیں	-11.1544
▁ہنر	-11.155
▁موٹ	-11.1559
لن	-11.1587
▁باور	-11.159
ہانی	-11.1592
▁محت	-11.1616
فیل	-11.1632
ڈیشن	-11.164
ارت	-11.164
ریس	-11.17
لاک	-11.1707
▁ثان	-11.1765
▁ٹیل	-11.1784
▁برن	-11.1789
▁میس	-11.1797
▁ملیر	-11.1802
▁سلیما	-11.181
▁اوریہ	-11.1825
▁وظ	-11.1829
الینڈ	-11.183
ٹانے	-11.1842
▁ٹھی	-11.1865
▁مشا	-11.187
▁توف	-11.1875
▁اٹھی	-11.1897
▁نبو	-11.19
شش	-11.1911
ڈنگ	-11.1917
▁لگوا	-11.1924
▁واہ	-11.1925
▁فض	-11.1925
▁گینگ	-11.1932
▁دکھان	-11.1941
فہ	-11.2014
▁کنو	-11.2016
متیں	-11.2024
▁پولی	-11.203
▁کمار	-11.2039
ھڑک	-11.2047
ضع	-11.2061
▁طن	-11.2063
▁ناگہا	-11.2071
گور	-11.2072
▁سکھايی	-11.208
▁حکومتوں	-11.2086
▁سٹا	-11.2086
▁پاکستانیوں	-11.2088
▁رگ	-11.2105
▁کاٹن	-11.2116
▁سہو	-11.2124
براہی	-11.2155
▁سماعت	-11.2158
کان	-11.2166
▁دیکھت	-11.2182
▁شماری	-11.2206
انٹ	-11.2215
▁اپکی	-11.2242
▁خودک	-11.2245
▁پکا	-11.2258
گیا۔	-11.2292
▁نوازی	-11.2296
▁مذم	-11.2312
ڑھنے	-11.2318
▁بڑھی	-11.2318
الج	-11.2342
▁ڈیر	-11.2357
▁اگل	-11.2367
▁اورجو	-11.2385
خلاص	-11.2403
دیتی	-11.2412
▁دیاگیا	-11.2432
▁نکا	-11.2446
ونا	-11.2446
اش	-11.2461
▁چناي	-11.2461
▁جہ	-11.2487
نفی	-11.2494
▁سنن	-11.2499
▁ڈرا	-11.2508
▁ٹرانس	-11.2513
علیم	-11.2514
▁مڑ	-11.2521
▁ہٹان	-11.2528
ورا	-11.254
▁اوراس	-11.2549
▁جین	-11.2561
▁لگو	-11.2586
ہون	-11.2592
ھل	-11.2602
▁فخری	-11.2612
اي	-11.2626
▁شج	-11.2641
▁مسا	-11.2648
▁نہی	-11.2676
اپے	-11.2676
ٹو	-11.2701
▁برہ	-11.2707
▁نمٹن	-11.2709
▁حما	-11.2735
فٹ	-11.2744
لیب	-11.2757
▁اجا	-11.2774
سم	-11.2775
وک	-11.2783
▁ٹری	-11.2786
▁لیب	-11.28
یٹکو	-11.2801
بھال	-11.2805
کنیک	-11.2812
سونا	-11.2823
عد	-11.2831
▁رہوں	-11.284
بولی	-11.2844
▁خلاي	-11.2845
ٹرز	-11.2863
▁کروان	-11.2921
دھی	-11.293
نوا	-11.2957
▁ہوايی	-11.2965
کسن	-11.2985
ھا	-11.2998
بانی	-11.3015
▁سورو	-11.3022
یری	-11.3026
یمن	-11.3048
▁چہ	-11.3071
ڑھے	-11.3074
▁فلمی	-11.3098
▁پریشانی	-11.31
▁ہوش	-11.3142
اعد	-11.3164
راہ	-11.3188
لنے	-11.3198
▁لگاد	-11.3226
افتی	-11.3245
▁راک	-11.331
کثر	-11.3314
▁کرادی	-11.3322
▁روٹ	-11.3335
وي	-11.3343
▁موتی	-11.3349
▁سنج	-11.3391
ولنگ	-11.3406
▁ہوگیاہے	-11.3412
▁ہل	-11.3461
▁سبس	-11.347
▁اچھايی	-11.3477
▁ورد	-11.3495
درستی	-11.3496
▁لفظی	-11.3498
▁بور	-11.3506
▁اٹھاد	-11.3507
ریک	-11.3533
▁توپ	-11.3544
▁پیپ	-11.3558
▁سما	-11.3561
▁خزان	-11.3565
اعظم	-11.3575
▁فق	-11.3577
▁کینٹی	-11.359
▁دت	-11.3593
ہوا	-11.3622
▁چھت	-11.3644
▁ریاستی	-11.3654
عرب	-11.3668
ضب	-11.3671
سلح	-11.3688
ھوٹ	-11.3693
▁حم	-11.3705
▁لبا	-11.3717
وکھے	-11.3744
نسر	-11.3748
▁اید	-11.375
▁رش	-11.375
▁کیاہے	-11.3754
رسی	-11.3788
▁ٹرانسف	-11.3794
ایٹ	-11.3811
▁بحر	-11.3818
سہ	-11.3849
▁مز	-11.3855
دیر	-11.3859
نوشی	-11.3865
جر	-11.3878
▁وزر	-11.3885
گلے	-11.389
بک	-11.3892
دیيے	-11.3907
فاين	-11.3911
▁گشت	-11.3919
مہنگے	-11.3926
یتا	-11.3965
▁کتا	-11.3966
▁دیکھے	-11.3972
▁کرک	-11.3973
▁راو	-11.3978
▁بغ	-11.3987
غا	-11.3991
▁سرین	-11.3995
▁نمازی	-11.4
یہی	-11.4027
▁گھبرات	-11.403
▁ڈس	-11.4068
ساط	-11.408
قاب	-11.4097
حت	-11.4107
▁کنٹری	-11.4114
▁الا	-11.4116
ینی	-11.4132
سط	-11.4164
▁اوپنر	-11.4167
▁فٹبالر	-11.4171
يونٹ	-11.4179
▁کھات	-11.4196
انپ	-11.4207
غو	-11.4215
انوی	-11.423
▁ہوچک	-11.4263
▁اص	-11.4267
▁پہنا	-11.4273
▁اٹک	-11.4274
▁رض	-11.4297
▁شمش	-11.4308
سب	-11.4327
ورکری	-11.4333
▁ہوجا	-11.4335
▁چڑھاي	-11.4341
تعین	-11.4358
ثہ	-11.4403
چکی	-11.4409
ارڈو	-11.4446
کھل	-11.4449
ستے	-11.4459
▁پرا	-11.4462
▁طاقتو	-11.4497
مزہ	-11.4502
طاری	-11.4524
▁ات	-11.4558
نگریز	-11.4572
کین	-11.4575
پسندی	-11.4581
▁الہ	-11.4592
▁دھوک	-11.4602
▁کف	-11.4616
مانوں	-11.462
اڑا	-11.4621
▁پکڑن	-11.4635
طرن	-11.4637
▁نند	-11.4649
▁بچاي	-11.4669
▁چھوڑن	-11.4685
▁ریفر	-11.4693
یغ	-11.4698
وج	-11.4713
▁چکن	-11.4714
مپرنگ	-11.472
پرا	-11.4727
▁بح	-11.4728
▁اٹھاي	-11.4728
وصل	-11.4733
ترین	-11.4736
▁کھلن	-11.4748
یرہ	-11.4755
▁کوہ	-11.4759
رگ	-11.4765
رتے	-11.4769
ناوٹ	-11.4825
لسی	-11.4843
▁لیگی	-11.4865
ويیں	-11.488
زہری	-11.4885
▁چاہي	-11.4895
▁کان	-11.4913
نصف	-11.4917
▁ریش	-11.4924
يل	-11.4925
تل	-11.4974
▁وہیں	-11.4977
بال	-11.4987
کرے	-11.5015
▁دھا	-11.5039
▁محر	-11.5044
▁وا	-11.505
سون	-11.5056
▁مزا	-11.5059
▁مکی	-11.5068
ورونا	-11.507
نٹین	-11.5078
▁کرام	-11.5088
طل	-11.5121
جلس	-11.5124
لمبا	-11.5136
ونٹی	-11.5145
▁مرا	-11.5149
▁لٹا	-11.5159
وگر	-11.516
نش	-11.5168
پرز	-11.5178
▁کرس	-11.5185
گاہے	-11.5187
▁الٹا	-11.5231
کولر	-11.5271
▁ہوت	-11.5275
لیز	-11.5282
▁تج	-11.5291
▁الخ	-11.5322
کوي	-11.5333
▁مشک	-11.534
نشن	-11.5341
▁سونی	-11.5343
اسکو	-11.5347
▁یش	-11.5347
▁ابر	-11.535
جیا	-11.5364
بط	-11.5367
▁باغا	-11.5369
لیتےہیں	-11.537
▁کامل	-11.5377
ٹرول	-11.5388
دیتا	-11.5392
یڈ	-11.5412
بند	-11.5419
کون	-11.542
▁پت	-11.5447
▁صب	-11.5452
▁بروک	-11.5484
▁انو	-11.5545
▁چڑھت	-11.5578
ارڈ	-11.56
▁پرو	-11.5601
▁گور	-11.5602
لیں	-11.5613
گيیں	-11.5621
ڈا	-11.5666
بچہ	-11.5668
ہد	-11.5678
▁کلف	-11.5705
▁ریف	-11.5718
▁کیون	-11.573
لس	-11.5732
▁وزرا	-11.5744
زول	-11.5748
فورا	-11.5753
الوں	-11.5771
سنت	-11.5772
▁سرما	-11.5781
لیٹر	-11.5786
▁چم	-11.5797
باع	-11.5842
▁پڑو	-11.586
▁کما	-11.5882
خانے	-11.5902
▁ہاس	-11.5913
▁لاش	-11.594
ويس	-11.5944
▁نوکی	-11.5974
▁پسندید	-11.5989
▁کاندھ	-11.6022
یمی	-11.6047
▁افواہ	-11.6052
یٹھے	-11.6057
▁اسٹری	-11.6066
وٹر	-11.6083
کتے	-11.6143
ویا	-11.6157
▁چھل	-11.6157
قطر	-11.6169
نایا	-11.6171
سٹوڈ	-11.6189
دیہ	-11.6192
▁کرواي	-11.6193
▁سٹریل	-11.6203
▁عب	-11.6203
▁قاعد	-11.6243
راسرار	-11.6249
▁مہی	-11.6264
▁سٹور	-11.6292
▁ہزارو	-11.6304
شک	-11.631
▁مجل	-11.6313
▁اچ	-11.6348
▁امی	-11.6352
ايٹ	-11.6392
▁رع	-11.6404
▁رايی	-11.642
▁میڈ	-11.6422
▁منح	-11.6432
نور	-11.6466
▁فیک	-11.6467
جايے	-11.6477
ڈز	-11.6478
▁حیا	-11.6478
سبز	-11.6501
▁یاور	-11.6506
ابستر	-11.6519
▁تدری	-11.6541
خر	-11.6548
▁بندی	-11.6553
خلاف	-11.6577
▁پیو	-11.6596
▁ہوي	-11.663
ندوں	-11.6635
▁کٹ	-11.6637
ناز	-11.6653
وسیم	-11.6673
ونگ	-11.6677
▁روان	-11.6684
▁رکھن	-11.6697
یسی	-11.6707
▁صاي	-11.6728
▁الح	-11.6729
رتی	-11.6753
ونی	-11.6755
▁نکلت	-11.6761
وانگی	-11.6761
رض	-11.6772
ابع	-11.6774
حکومت	-11.6811
▁استعما	-11.6815
ینگے	-11.682
▁نوک	-11.6827
▁نیکی	-11.6833
ذر	-11.6836
تنا	-11.6875
▁پھیلاي	-11.6889
لپا	-11.6889
▁اسام	-11.6892
فے	-11.6901
▁بوي	-11.6904
انیت	-11.6921
ینڈ	-11.6944
اص	-11.6961
▁منف	-11.701
▁ہتھی	-11.7013
▁سرک	-11.7035
نجے	-11.7037
ارد	-11.7058
▁دوسر	-11.7072
باک	-11.7075
▁یکس	-11.708
سان	-11.7106
لیکن	-11.7108
مجھے	-11.711
▁اونچ	-11.7113
▁گزارا	-11.7118
▁ہمہ	-11.7145
اپنی	-11.7147
▁ٹو	-11.7153
▁فت	-11.7165
▁لیجي	-11.7165
کرنا	-11.7183
رجی	-11.7183
▁اسل	-11.7209
▁ابرو	-11.7221
رب	-11.7241
کھانا	-11.7249
لالہ	-11.7251
کرنے	-11.7252
▁مسال	-11.7274
▁بیج	-11.7287
▁چیت	-11.7307
اریوں	-11.7313
▁بچايی	-11.7318
زاروں	-11.7348
ٹیم	-11.7358
احق	-11.7361
▁کوسٹ	-11.7367
بوٹ	-11.7373
▁نبھا	-11.7376
خواہی	-11.739
▁معنو	-11.7414
لگنے	-11.7419
یکل	-11.7424
▁کلا	-11.7433
يیں۔	-11.7449
تہ	-11.745
▁اپر	-11.7455
ہنم	-11.7456
بیين	-11.7473
چاہیے	-11.7479
وکل	-11.7486
▁پرت	-11.7487
▁استق	-11.7488
چکے	-11.7571
▁ٹیو	-11.7591
چنے	-11.7597
زہ	-11.7639
کرتے	-11.7646
بعد	-11.7668
زیادہ	-11.7679
امک	-11.7679
نشا	-11.7705
اپنے	-11.7707
▁پیچھ	-11.773
وع	-11.7732
▁ہت	-11.7741
حمل	-11.7744
▁سیا	-11.7763
پہلے	-11.7796
شکا	-11.7808
ومن	-11.7826
▁مٹا	-11.7875
فیصلہ	-11.7888
▁تلخ	-11.789
▁پیج	-11.7903
▁کولا	-11.7907
ہوتی	-11.7937
ریشن	-11.7938
ہمارے	-11.794
ہنمايی	-11.7962
زش	-11.7964
دران	-11.7966
ضرورت	-11.798
لوگوں	-11.7986
▁گنجا	-11.7998
▁پچھ	-11.8016
▁کہت	-11.8017
وبا	-11.8056
ٹش	-11.8057
کرکٹ	-11.8068
▁ڈوم	-11.8071
گری	-11.8074
ارہ	-11.8078
دوسرے	-11.8085
استعمال	-11.8087
ہويے	-11.8093
▁ہدای	-11.8102
شکست	-11.8104
▁ہولڈ	-11.8109
یہاں	-11.8113
باش	-11.8118
والوں	-11.8132
ہوں۔	-11.8136
شروع	-11.8137
نما	-11.8147
بلے	-11.8156
سینیٹر	-11.8158
رکار	-11.817
انسان	-11.8182
پڑ	-11.8183
▁کٹو	-11.8187
▁سکیور	-11.8194
ریاست	-11.8215
جہاں	-11.8216
▁چلايی	-11.8235
گھر	-11.8251
ونو	-11.8269
مارے	-11.8274
شاءاللہ	-11.8288
سمجھ	-11.8289
انسی	-11.8331
سول	-11.8335
ینسر	-11.8336
▁اسم	-11.8336
خیال	-11.8336
دونوں	-11.8337
▁تل	-11.8341
ظاہر	-11.8346
▁خودب	-11.8349
تاریخ	-11.8356
راث	-11.836
▁ضم	-11.8376
▁بوس	-11.8387
▁کرگيی	-11.8389
معاملہ	-11.8412
عمران	-11.8415
قادری	-11.8419
▁پوچھو	-11.8432
لینڈز	-11.8435
▁ٹوٹے	-11.846
ایسے	-11.8462
زبان	-11.8466
مسلمان	-11.8466
ہری	-11.8468
قايم	-11.848
کچر	-11.8485
ضوع	-11.85
امریکہ	-11.8506
دوسرا	-11.8506
جواب	-11.8509
▁پھلو	-11.851
کپتان	-11.8518
پولیس	-11.8524
شاید	-11.853
رار	-11.8531
شامل	-11.8533
انگ	-11.8534
ايیو	-11.8542
ہا	-11.8543
50	-11.8549
مسايل	-11.855
▁شیو	-11.8552
موسم	-11.8557
▁کیرب	-11.8558
کھن	-11.8569
چند	-11.8578
یشانی	-11.858
وزیر	-11.8587
میٹ	-11.8593
مايے	-11.8594
سماجی	-11.8596
لغ	-11.8597
▁چول	-11.8598
محمد	-11.8598
پابندی	-11.8601
عہ	-11.8603
▁پیما	-11.8611
پال	-11.8614
▁بلڈ	-11.8615
ہات	-11.8619
ختم	-11.8625
سٹیو	-11.8631
چیز	-11.8632
▁بہا	-11.8634
معیشت	-11.8635
جود	-11.8641
کرتی	-11.8643
چاہتے	-11.8643
طاقت	-11.8649
مذہبی	-11.865
صلاحیت	-11.865
تحقیق	-11.8651
زگاری	-11.8654
کاروبار	-11.8667
اظہار	-11.8667
التو	-11.8669
کھلاڑیوں	-11.8671
اض	-11.8678
سرفراز	-11.868
ٹايو	-11.8686
پیداوار	-11.8689
فتوی	-11.869
بعض	-11.869
ریکارڈ	-11.8693
▁تقریب	-11.8694
میچ	-11.8699
مقابلے	-11.8702
ریٹ	-11.8705
محفوظ	-11.8708
بہتر	-11.8708
عقل	-11.871
معمول	-11.872
ويے	-11.8721
لگتا	-11.8723
فايدہ	-11.8726
ٹرافی	-11.8728
شعور	-11.8729
ڈیسک	-11.8732
▁سپاہ	-11.8734
اثرات	-11.8737
جاسکتا	-11.8739
▁طبیعی	-11.8739
صدر	-11.8741
کويل	-11.8742
اخلاقی	-11.8742
خوبصورت	-11.8743
اعی	-11.8745
برطانوی	-11.875
الحق	-11.8753
خزانہ	-11.8756
لندن	-11.8756
بلڈ	-11.8757
گرین	-11.8757
▁جلا	-11.8757
احساس	-11.8758
نتايج	-11.8759
ادايیگی	-11.8761
الزامات	-11.8761
انداز	-11.8765
▁عزی	-11.8765
اڑتالیس	-11.8766
علاوہ	-11.8767
عزیز	-11.8768
متوقع	-11.8768
علما	-11.8769
کاغذ	-11.8769
پکار	-11.8769
نواز	-11.877
بھارتی	-11.8771
قبضہ	-11.8772
خرچ	-11.8774
درامد	-11.8774
مقابلہ	-11.8775
ٹايٹل	-11.8775
محدود	-11.8776
گردانی	-11.8776
اداکارہ	-11.8777
کولمب	-11.8778
اجازت	-11.878
عرض	-11.8781
▁ازم	-11.8781
داخلہ	-11.8782
ك	-11.8782
جہاد	-11.8783
عزت	-11.8784
لیڈر	-11.8785
تہذیب	-11.8785
ہاتھ	-11.8786
انکشاف	-11.8786
واسطہ	-11.879
مددگار	-11.8792
بايیک	-11.8793
ڈالر	-11.8793
▁بخو	-11.8795
▁پوچھی	-11.8796
حادثہ	-11.8796
حادثے	-11.8796
شہریوں	-11.8798
بخار	-11.8799
اختتام	-11.88
ڈھا	-11.8801
الاقوامی	-11.8802
مقدمات	-11.8802
بڑھتی	-11.8802
دعوی	-11.8803
فضل	-11.8804
برطان	-11.8805
قايد	-11.8807
سندھ	-11.8807
سايیکل	-11.8807
حرکت	-11.8808
فساد	-11.8809
عايد	-11.881
شمالی	-11.881
کیے	-11.8811
چیزیں	-11.8812
دستور	-11.8813
کپڑے	-11.8813
الطبیعیات	-11.8814
غلطی	-11.8816
تضاد	-11.8817
نوعیت	-11.8818
ثانی	-11.8818
جے	-11.882
ملازمین	-11.8821
خارجہ	-11.8823
پبلک	-11.8826
نمايند	-11.8828
مطالبہ	-11.8828
قصہ	-11.883
شدہ	-11.883
جانب	-11.883
پیٹرول	-11.8832
قیام	-11.8835
یادگار	-11.8835
رجوع	-11.8836
مفہوم	-11.884
نجوم	-11.8841
كو	-11.8843
ڈراي	-11.8845
مبارک	-11.8848
▁بیلجی	-11.885
جیت	-11.8853
رومان	-11.8856
علاج	-11.8857
مقصد	-11.8858
کہتے	-11.8862
انجام	-11.8862
غصہ	-11.8863
ہمراہ	-11.8864
میرا	-11.8868
کریں	-11.8872
گندگی	-11.8876
جارہا	-11.8878
گریبا	-11.8884
جايز	-11.8886
▁سلس	-11.8887
پتہ	-11.8889
نصیب	-11.8892
بول	-11.891
یافتہ	-11.8911
ظالم	-11.8914
القادری	-11.8915
داروں	-11.8915
کرادی	-11.8916
بننے	-11.8916
▁تشخ	-11.8917
کہانی	-11.8925
موافق	-11.8928
ٹینس	-11.8935
ننھے	-11.8936
اطلاع	-11.8938
▁جزو	-11.8941
عدم	-11.895
اشنا	-11.8954
نوٹس	-11.8955
جنون	-11.8955
کیسے	-11.896
پہنچا	-11.8961
صح	-11.8962
شام	-11.8962
تقریب	-11.8966
▁کبھارک	-11.8971
دھرنے	-11.8971
طارق	-11.8978
سمجھا	-11.8979
رپورٹ	-11.899
▁جھون	-11.8991
ورنہ	-11.9007
غل	-11.9008
▁شاد	-11.9009
رابط	-11.901
بحری	-11.9015
ادھور	-11.9019
خبری	-11.9024
مسلم	-11.9025
▁سوڈ	-11.9029
گڈ	-11.903
▁ابرا	-11.9041
▁نتیج	-11.9048
مادر	-11.9049
بندی	-11.905
خصوص	-11.905
یونايیٹڈ	-11.9053
جوش	-11.9057
▁محاف	-11.9066
یڈٹ	-11.9068
خانہ	-11.9068
رکات	-11.9073
سرو	-11.9074
▁افس	-11.9077
علم	-11.9078
نگٹ	-11.9079
▁قص	-11.908
▁فطر	-11.9084
▁تربی	-11.9086
کردہ	-11.9089
لگتے	-11.9091
▁الع	-11.9093
ہايی	-11.9096
▁26630	-11.9101
▁جمہور	-11.9105
پڑی	-11.9106
▁حاضر	-11.9107
▁تنزل	-11.9108
▁مرح	-11.9108
▁پاکستا	-11.9111
لیگ	-11.9113
فرض	-11.9116
چور	-11.9117
▁خلو	-11.9117
لان	-11.9122
کوڈ	-11.9125
تعال	-11.9142
▁انتہاي	-11.9146
خوف	-11.9147
قانو	-11.9147
تکف	-11.9148
▁زمباب	-11.9149
ہین	-11.9153
ضر	-11.9154
▁مطالب	-11.9157
خار	-11.9161
زدہ	-11.9161
▁ہمسا	-11.9164
▁حوصل	-11.9167
انکار	-11.9172
ندگان	-11.9172
ایمب	-11.9176
▁طاق	-11.9187
▁ٹويٹ	-11.9192
▁جھک	-11.9193
▁کمپیوٹ	-11.9194
▁سٹر	-11.9197
جسٹ	-11.9197
▁منتظ	-11.9198
کھٹا	-11.9199
▁چیمپی	-11.92
▁مداح	-11.92
▁مطمي	-11.9201
اغاز	-11.9202
▁ننھ	-11.9204
▁معاشرت	-11.9206
▁اٹلانٹ	-11.9209
شیر	-11.921
▁رسید	-11.921
سفیان	-11.9213
▁تسلی	-11.9214
کوچ	-11.9214
▁امیدوار	-11.9216
حافظ	-11.9218
▁اعزا	-11.9219
یانتی	-11.922
ونیورسٹی	-11.9222
بعدالطبیع	-11.9223
▁الغ	-11.9223
▁باوجو	-11.9223
▁نقص	-11.9224
▁زمبابو	-11.9225
▁مقص	-11.9225
▁معصوم	-11.9226
ریکٹس	-11.9226
انتظامی	-11.9226
ضبوط	-11.9227
▁یونیورس	-11.9228
لاسٹک	-11.9228
پیگنڈ	-11.9229
صداق	-11.9229
ڑتال	-11.923
بوط	-11.923
اعظ	-11.923
یگزین	-11.9233
▁اختل	-11.9235
مپينز	-11.9238
ژن	-11.9238
شخص	-11.9239
▁حاکم	-11.924
اجرا	-11.9243
نگار	-11.9244
▁مص	-11.9244
▁ارجن	-11.9245
▁سرحد	-11.9247
▁ہوجات	-11.9248
فظ	-11.9251
▁تیسر	-11.9251
▁یوناي	-11.9252
ھالو	-11.9254
▁کھان	-11.9264
▁ٹايٹ	-11.9264
کہنا	-11.9265
تدارک	-11.9265
▁یکسو	-11.9272
صیح	-11.9273
▁طوفا	-11.9273
يکن	-11.9274
رتھر	-11.9276
▁پھٹ	-11.9277
▁مزد	-11.9279
يڈ	-11.9279
▁ہسپ	-11.928
نڈہ	-11.928
حکام	-11.9284
ضحی	-11.9284
▁استع	-11.9285
▁معذ	-11.9286
فیس	-11.9287
▁ایکسپو	-11.9287
▁گجرا	-11.9289
▁مصن	-11.9293
ریعے	-11.93
الات	-11.93
ني	-11.9302
▁فرمايی	-11.9308
▁تشری	-11.931
اسٹايل	-11.9314
کشمی	-11.9319
▁وارد	-11.9319
▁فاير	-11.9324
مستق	-11.9328
بارہ	-11.933
فیڈ	-11.934
ٹايز	-11.9347
ٹوٹ	-11.9347
▁منسو	-11.9349
▁وغیر	-11.9354
عط	-11.9364
شکار	-11.9365
▁مخل	-11.9367
ارتی	-11.9367
▁سنسن	-11.937
اگے	-11.9371
▁تعال	-11.9372
▁وابست	-11.9376
جاتاہے	-11.9381
بيی	-11.9386
▁چکھ	-11.9391
عوامی	-11.9392
▁چہر	-11.9413
يین	-11.9415
▁مصال	-11.9418
مطلب	-11.942
غان	-11.9426
▁ریٹن	-11.9428
▁گفت	-11.9428
ڈسٹری	-11.9429
سبسٹ	-11.9429
کنار	-11.943
گما	-11.9432
گال	-11.9434
▁ولیم	-11.9438
عنق	-11.9439
الک	-11.9447
سايیڈ	-11.9447
سکین	-11.9448
خم	-11.9451
▁ايیو	-11.9452
▁چیير	-11.9453
یونیو	-11.9461
▁مشرو	-11.9466
شل	-11.947
زدل	-11.9478
خوان	-11.9479
▁پارلیم	-11.9481
صولی	-11.9483
پرڈ	-11.9486
▁ریکا	-11.9486
گاوں	-11.9495
جمان	-11.9498
▁خطرن	-11.9498
▁فرم	-11.95
نب	-11.9506
▁سیل	-11.9513
ظہبی	-11.9514
ايینی	-11.9515
▁مشور	-11.9516
یشنل	-11.9516
شواہد	-11.9529
موت	-11.953
اسپور	-11.9531
▁پنج	-11.9534
▁وسط	-11.9534
▁ایشو	-11.9538
سطی	-11.9539
▁اشف	-11.9543
غم	-11.9546
▁جع	-11.9549
▁اشت	-11.955
روزگار	-11.958
▁بیلجیي	-11.9599
چسپ	-11.9603
ملیں	-11.9617
▁فرس	-11.962
وٹا	-11.9622
ناسب	-11.9628
يٹر	-11.9632
رافیہ	-11.9632
▁نگا	-11.9634
▁چلان	-11.9642
اکستان	-11.9647
وراگ	-11.9647
▁ذو	-11.965
▁ایجن	-11.9663
رٹیف	-11.9663
▁اکسا	-11.9664
▁روکن	-11.9677
لاں	-11.9683
سری	-11.9687
ماہر	-11.9689
▁ڈا	-11.9691
▁تالا	-11.9691
الرح	-11.9693
▁تیس	-11.9696
حل	-11.9704
منگ	-11.9713
▁دہر	-11.9715
▁ڈراي	-11.9715
▁اورنگ	-11.9717
▁انکش	-11.9728
بیون	-11.9733
اظت	-11.9737
▁روکے	-11.9744
جنات	-11.9754
ھوڑ	-11.9771
▁انشا	-11.9772
▁ویڈ	-11.9785
بیسی	-11.9794
▁سیف	-11.9794
شتر	-11.9794
شانی	-11.9801
قط	-11.9802
▁مغ	-11.9805
میا	-11.9808
▁لاٹ	-11.9817
▁مطل	-11.9817
رلر	-11.9817
▁نادا	-11.9819
▁گذ	-11.9825
هے	-11.9829
دیب	-11.9836
عش	-11.9838
حاق	-11.986
▁کراچ	-11.9863
ارٹی	-11.9863
غر	-11.9866
بلاغ	-11.9873
▁سپو	-11.9879
الے	-11.9889
دش	-11.9889
لٹن	-11.9896
▁زب	-11.9897
▁دکھايیے	-11.9899
سنج	-11.9905
نوار	-11.9907
سبس	-11.992
▁واپ	-11.9923
▁اتری	-11.9926
زیریں	-11.993
▁ٹران	-11.993
▁پڑت	-11.9932
▁رسو	-11.9934
پش	-11.9949
حدہ	-11.9964
▁علامتی	-11.9964
اخت	-11.9965
فور	-11.9966
▁روگ	-11.9967
▁قب	-11.9968
اندھی	-11.997
یال	-11.997
ٹما	-11.9971
▁انگری	-11.998
▁ڈوی	-11.9981
▁برخ	-12.001
▁پوج	-12.0013
اورچی	-12.0022
▁شہرو	-12.0024
گرچہ	-12.0025
دیوار	-12.0026
داران	-12.0033
▁ڈان	-12.0035
ریٹنگ	-12.004
▁شنا	-12.0041
دث	-12.0043
▁پان	-12.0044
تحت	-12.0044
اقب	-12.0045
▁بیٹس	-12.0051
▁کھايی	-12.0082
دگا	-12.0082
بودا	-12.0086
سابق	-12.0089
▁ہتھ	-12.0091
▁تاج	-12.0099
رقع	-12.011
لاگ	-12.0116
ساز	-12.0116
قتد	-12.0129
دبی	-12.0138
تان	-12.0143
▁نب	-12.0145
▁جاتیں	-12.0154
اسکتا	-12.016
رچ	-12.0161
واح	-12.0179
▁ہمراہ	-12.0187
زیاں	-12.0196
▁پاکس	-12.0208
▁بنگل	-12.0216
▁چھٹا	-12.0229
▁پہنچان	-12.0232
وٹس	-12.0233
ذار	-12.024
▁دھن	-12.0244
▁افسان	-12.0257
▁رشی	-12.0261
نڈم	-12.0261
▁ضو	-12.0289
لیگی	-12.0298
ايرس	-12.0302
ہزا	-12.0308
یچ	-12.0314
ملے	-12.0317
سٹی	-12.0334
▁چھو	-12.0347
ارض	-12.0355
▁ورن	-12.0365
جوا	-12.0374
نعر	-12.0378
شوب	-12.0382
وتا	-12.0439
▁دربا	-12.0454
یض	-12.046
▁بنت	-12.0475
منص	-12.0477
رغ	-12.0485
▁فاين	-12.0488
گز	-12.0495
▁سنبھالن	-12.0496
تباہ	-12.0506
▁بنادی	-12.0514
مہمان	-12.0514
مد	-12.0521
فرنس	-12.0523
ضوعات	-12.0524
نیج	-12.0526
گوا	-12.053
▁سار	-12.0533
ابند	-12.054
وزک	-12.0543
خاص	-12.0553
▁ايرل	-12.0567
بوس	-12.0576
▁ادار	-12.0577
▁دیگ	-12.059
▁گزارن	-12.0594
نيے	-12.0606
▁سند	-12.0609
یجیے	-12.0611
بض	-12.0614
روما	-12.0626
▁صفا	-12.0633
ھب	-12.0633
لیجی	-12.0637
رسن	-12.0639
▁اٹھان	-12.0652
▁شم	-12.066
▁مذا	-12.067
فس	-12.0677
▁گھن	-12.0677
▁ڈپ	-12.0683
▁گنی	-12.0704
▁لالی	-12.0706
یٹڈ	-12.0715
وومن	-12.072
دنا	-12.0734
▁لبر	-12.0737
▁کلی	-12.0756
▁عال	-12.0758
▁جر	-12.0769
▁افر	-12.0769
لینا	-12.0814
شاہی	-12.082
ايرن	-12.0821
کےليے	-12.0821
فرو	-12.0827
ادم	-12.0839
▁عوا	-12.0874
▁مفر	-12.0878
یق	-12.0878
▁سیکر	-12.0882
▁کور	-12.0883
فشان	-12.0886
سوچتا	-12.0898
▁پبل	-12.0908
وط	-12.0924
▁پست	-12.0931
59	-12.0931
کیف	-12.0972
لیا	-12.0976
وتوں	-12.0991
ملکی	-12.0991
ڑان	-12.1008
▁مہر	-12.1013
▁الطب	-12.1014
نیکل	-12.1022
▁اسود	-12.103
رحان	-12.1034
▁راس	-12.1067
▁انصا	-12.1071
سخ	-12.1073
▁سبزی	-12.1074
▁طلبا	-12.1078
شرے	-12.108
▁مط	-12.1081
ینٹی	-12.1093
دانستہ	-12.1112
اشت	-12.1115
رث	-12.1137
▁نصی	-12.1139
▁جہا	-12.1143
▁متب	-12.1163
▁اصلی	-12.1164
وتے	-12.1164
ولیس	-12.1166
نگا	-12.117
رفی	-12.1186
نظم	-12.1205
▁رہاہے	-12.1219
▁اث	-12.1225
رغی	-12.1232
▁ریو	-12.1237
▁بندو	-12.1268
▁ارز	-12.1282
▁سیکھی	-12.1288
املہ	-12.1295
▁خار	-12.1297
▁براو	-12.1305
ينز	-12.1309
یص	-12.1318
مانڈ	-12.1324
اخر	-12.133
اچہ	-12.1336
▁پارل	-12.1339
▁لیور	-12.1344
▁منڈ	-12.1347
سرز	-12.1349
جوع	-12.1362
زور	-12.1362
راستہ	-12.1371
▁الب	-12.1373
بش	-12.138
▁منت	-12.1415
یلتھ	-12.1424
ندیاں	-12.1448
چیل	-12.1459
جايیں	-12.1468
▁فیل	-12.1479
ہوت	-12.1487
ازو	-12.1491
ناف	-12.1507
سید	-12.1524
گون	-12.1559
▁حوال	-12.1569
ونس	-12.1577
میڈی	-12.1581
▁کھیلو	-12.161
زدور	-12.1612
رال	-12.162
▁ملزک	-12.1646
الم	-12.165
▁ضابط	-12.1654
زون	-12.1665
▁بدو	-12.1669
▁نذ	-12.1679
نذر	-12.1687
اذ	-12.1715
رج	-12.1722
نشور	-12.1728
زق	-12.1746
اکہ	-12.1786
▁ٹم	-12.1843
▁استح	-12.1851
قاہ	-12.1867
عاش	-12.1868
وانہ	-12.1903
کب	-12.1912
وشو	-12.1919
▁نشا	-12.1929
▁دارو	-12.1955
واری	-12.1992
▁دستی	-12.2029
ریلی	-12.2042
▁ترس	-12.2075
وضو	-12.2124
ازک	-12.215
عمیر	-12.2165
ونوں	-12.2175
▁اندا	-12.2185
ہنوں	-12.2228
مق	-12.2237
ویز	-12.2241
فتی	-12.2247
قوں	-12.2252
نرز	-12.2274
▁کرسک	-12.2322
يیے	-12.2328
سٹاک	-12.2342
▁بست	-12.2353
▁چیو	-12.2355
▁جیک	-12.2374
▁ھی	-12.2391
تیں	-12.2398
نچر	-12.2409
▁اسٹا	-12.242
انح	-12.2444
دیش	-12.2446
▁وجو	-12.245
ونے	-12.2451
▁باي	-12.2453
▁فنا	-12.2457
▁دری	-12.246
▁البر	-12.2493
▁اجت	-12.2528
الز	-12.2532
ریکو	-12.2561
▁فیم	-12.2566
▁ہال	-12.2573
رمین	-12.2575
نٹیلی	-12.2582
▁خبری	-12.2583
ھانے	-12.2585
وسط	-12.2643
▁محو	-12.2674
طور	-12.2688
فیر	-12.2694
وٹی	-12.2733
گہ	-12.2746
ھنڈے	-12.2756
▁خطا	-12.2756
ھارے	-12.2764
▁بچی	-12.2795
چڑ	-12.282
▁کارو	-12.2824
ا۔۔۔	-12.283
اتر	-12.2837
▁بگل	-12.2855
▁دہن	-12.2869
بہار	-12.2874
توحی	-12.2884
▁گوش	-12.2899
نوان	-12.2949
شنايی	-12.2966
▁مہین	-12.2994
حرف	-12.3022
▁مشر	-12.3027
نمايی	-12.3045
لاي	-12.3074
قادر	-12.3086
▁ڈن	-12.3098
بشی	-12.3112
فرم	-12.3117
میشہ	-12.3129
بستر	-12.3135
▁حرک	-12.3156
ظو	-12.3159
یسے	-12.3184
▁پگ	-12.3197
▁نہلا	-12.3198
▁ہنگ	-12.32
جوہ	-12.3214
▁سکت	-12.3224
▁منز	-12.3249
▁سلی	-12.3272
لوی	-12.3284
نشاء	-12.3293
گین	-12.3325
▁بنن	-12.3342
▁جوا	-12.3359
عف	-12.3366
▁اسپا	-12.3368
بصورت	-12.3369
اسرار	-12.3379
▁برل	-12.3385
مارا	-12.34
ستر	-12.3426
اکٹ	-12.3473
▁بلاو	-12.3474
یلت	-12.3478
▁کال	-12.3479
▁مثالی	-12.3481
منے	-12.3489
سويی	-12.3495
ژ	-13.3075
